{
  "version": "1.0",
  "truncation": null,
  "padding": null,
  "added_tokens": [
    {
      "id": 0,
      "content": "[UNK]",
      "single_word": false,
      "lstrip": false,
      "rstrip": false,
      "normalized": false,
      "special": true
    },
    {
      "id": 1,
      "content": "[PAD]",
      "single_word": false,
      "lstrip": false,
      "rstrip": false,
      "normalized": false,
      "special": true
    },
    {
      "id": 2,
      "content": "[SOS]",
      "single_word": false,
      "lstrip": false,
      "rstrip": false,
      "normalized": false,
      "special": true
    },
    {
      "id": 3,
      "content": "[EOS]",
      "single_word": false,
      "lstrip": false,
      "rstrip": false,
      "normalized": false,
      "special": true
    }
  ],
  "normalizer": null,
  "pre_tokenizer": {
    "type": "Metaspace",
    "replacement": " ",
    "prepend_scheme": "always",
    "split": true
  },
  "post_processor": null,
  "decoder": {
    "type": "Metaspace",
    "replacement": " ",
    "prepend_scheme": "always",
    "split": true
  },
  "model": {
    "type": "BPE",
    "dropout": null,
    "unk_token": "[UNK]",
    "continuing_subword_prefix": null,
    "end_of_word_suffix": null,
    "fuse_unk": false,
    "byte_fallback": false,
    "ignore_merges": false,
    "vocab": {
      "[UNK]": 0,
      "[PAD]": 1,
      "[SOS]": 2,
      "[EOS]": 3,
      "\u0001": 4,
      "\u0002": 5,
      "\u0003": 6,
      "\u0005": 7,
      "\b": 8,
      "\t": 9,
      "\n": 10,
      "\u000b": 11,
      "\f": 12,
      "\u0014": 13,
      "\u0015": 14,
      "\u0017": 15,
      "\u0018": 16,
      "\u0019": 17,
      "\u001b": 18,
      "\u001f": 19,
      " ": 20,
      "!": 21,
      "\"": 22,
      "#": 23,
      "$": 24,
      "%": 25,
      "&": 26,
      "'": 27,
      "(": 28,
      ")": 29,
      "*": 30,
      "+": 31,
      ",": 32,
      "-": 33,
      ".": 34,
      "/": 35,
      "0": 36,
      "1": 37,
      "2": 38,
      "3": 39,
      "4": 40,
      "5": 41,
      "6": 42,
      "7": 43,
      "8": 44,
      "9": 45,
      ":": 46,
      ";": 47,
      "<": 48,
      "=": 49,
      ">": 50,
      "?": 51,
      "@": 52,
      "A": 53,
      "B": 54,
      "C": 55,
      "D": 56,
      "E": 57,
      "F": 58,
      "G": 59,
      "H": 60,
      "I": 61,
      "J": 62,
      "K": 63,
      "L": 64,
      "M": 65,
      "N": 66,
      "O": 67,
      "P": 68,
      "Q": 69,
      "R": 70,
      "S": 71,
      "T": 72,
      "U": 73,
      "V": 74,
      "W": 75,
      "X": 76,
      "Y": 77,
      "Z": 78,
      "[": 79,
      "\\": 80,
      "]": 81,
      "^": 82,
      "_": 83,
      "`": 84,
      "a": 85,
      "b": 86,
      "c": 87,
      "d": 88,
      "e": 89,
      "f": 90,
      "g": 91,
      "h": 92,
      "i": 93,
      "j": 94,
      "k": 95,
      "l": 96,
      "m": 97,
      "n": 98,
      "o": 99,
      "p": 100,
      "q": 101,
      "r": 102,
      "s": 103,
      "t": 104,
      "u": 105,
      "v": 106,
      "w": 107,
      "x": 108,
      "y": 109,
      "z": 110,
      "{": 111,
      "|": 112,
      "}": 113,
      "~": 114,
      "": 115,
      "": 116,
      "": 117,
      "": 118,
      "": 119,
      "": 120,
      "": 121,
      "": 122,
      "": 123,
      "": 124,
      "": 125,
      "": 126,
      "": 127,
      "": 128,
      "": 129,
      "": 130,
      "": 131,
      "": 132,
      "": 133,
      "": 134,
      "": 135,
      "": 136,
      " ": 137,
      "¡": 138,
      "¢": 139,
      "£": 140,
      "¤": 141,
      "¥": 142,
      "¦": 143,
      "§": 144,
      "¨": 145,
      "©": 146,
      "ª": 147,
      "«": 148,
      "¬": 149,
      "­": 150,
      "®": 151,
      "¯": 152,
      "°": 153,
      "±": 154,
      "²": 155,
      "³": 156,
      "´": 157,
      "µ": 158,
      "¶": 159,
      "·": 160,
      "¸": 161,
      "¹": 162,
      "º": 163,
      "»": 164,
      "¼": 165,
      "½": 166,
      "¾": 167,
      "¿": 168,
      "À": 169,
      "Á": 170,
      "Â": 171,
      "Ã": 172,
      "Ä": 173,
      "Å": 174,
      "Æ": 175,
      "Ç": 176,
      "È": 177,
      "É": 178,
      "Ê": 179,
      "Ë": 180,
      "Ì": 181,
      "Í": 182,
      "Î": 183,
      "Ï": 184,
      "Ð": 185,
      "Ñ": 186,
      "Ò": 187,
      "Ó": 188,
      "Ô": 189,
      "Õ": 190,
      "Ö": 191,
      "×": 192,
      "Ø": 193,
      "Ù": 194,
      "Ú": 195,
      "Û": 196,
      "Ü": 197,
      "Ý": 198,
      "Þ": 199,
      "ß": 200,
      "à": 201,
      "á": 202,
      "â": 203,
      "ã": 204,
      "ä": 205,
      "å": 206,
      "æ": 207,
      "ç": 208,
      "è": 209,
      "é": 210,
      "ê": 211,
      "ë": 212,
      "ì": 213,
      "í": 214,
      "î": 215,
      "ï": 216,
      "ð": 217,
      "ñ": 218,
      "ò": 219,
      "ó": 220,
      "ô": 221,
      "õ": 222,
      "ö": 223,
      "÷": 224,
      "ø": 225,
      "ù": 226,
      "ú": 227,
      "û": 228,
      "ü": 229,
      "ý": 230,
      "þ": 231,
      "ÿ": 232,
      "Ā": 233,
      "ā": 234,
      "ă": 235,
      "ą": 236,
      "Ć": 237,
      "ć": 238,
      "Č": 239,
      "č": 240,
      "Đ": 241,
      "đ": 242,
      "Ē": 243,
      "ē": 244,
      "ĕ": 245,
      "ė": 246,
      "ę": 247,
      "ě": 248,
      "Ğ": 249,
      "ğ": 250,
      "Ġ": 251,
      "ġ": 252,
      "ģ": 253,
      "ĥ": 254,
      "ħ": 255,
      "Ĩ": 256,
      "ĩ": 257,
      "ī": 258,
      "ĭ": 259,
      "į": 260,
      "İ": 261,
      "ı": 262,
      "Ľ": 263,
      "ľ": 264,
      "Ł": 265,
      "ł": 266,
      "ń": 267,
      "ň": 268,
      "ŋ": 269,
      "Ō": 270,
      "ō": 271,
      "ŏ": 272,
      "ő": 273,
      "Œ": 274,
      "œ": 275,
      "ŗ": 276,
      "Ř": 277,
      "ř": 278,
      "Ś": 279,
      "ś": 280,
      "Ŝ": 281,
      "Ş": 282,
      "ş": 283,
      "Š": 284,
      "š": 285,
      "Ţ": 286,
      "ţ": 287,
      "Ť": 288,
      "ũ": 289,
      "ū": 290,
      "ŭ": 291,
      "ů": 292,
      "ŵ": 293,
      "ŷ": 294,
      "Ÿ": 295,
      "ź": 296,
      "Ż": 297,
      "ż": 298,
      "Ž": 299,
      "ž": 300,
      "Ə": 301,
      "Ƒ": 302,
      "ƒ": 303,
      "Ơ": 304,
      "ơ": 305,
      "ƨ": 306,
      "Ʈ": 307,
      "Ư": 308,
      "ư": 309,
      "ƴ": 310,
      "ƶ": 311,
      "ǀ": 312,
      "ǃ": 313,
      "ǎ": 314,
      "ǐ": 315,
      "Ǒ": 316,
      "ǒ": 317,
      "Ǔ": 318,
      "ǔ": 319,
      "ǚ": 320,
      "ǝ": 321,
      "ǣ": 322,
      "ǧ": 323,
      "ǽ": 324,
      "Ǿ": 325,
      "Ș": 326,
      "ș": 327,
      "ț": 328,
      "ȡ": 329,
      "ȣ": 330,
      "ȧ": 331,
      "ȳ": 332,
      "ȶ": 333,
      "Ʌ": 334,
      "ɍ": 335,
      "ɐ": 336,
      "ɑ": 337,
      "ɒ": 338,
      "ɔ": 339,
      "ɕ": 340,
      "ɖ": 341,
      "ə": 342,
      "ɛ": 343,
      "ɜ": 344,
      "ɝ": 345,
      "ɞ": 346,
      "ɟ": 347,
      "ɡ": 348,
      "ɣ": 349,
      "ɦ": 350,
      "ɨ": 351,
      "ɪ": 352,
      "ɫ": 353,
      "ɬ": 354,
      "ɮ": 355,
      "ɯ": 356,
      "ɲ": 357,
      "ɳ": 358,
      "ɴ": 359,
      "ɵ": 360,
      "ɹ": 361,
      "ɽ": 362,
      "ɾ": 363,
      "ʁ": 364,
      "ʂ": 365,
      "ʃ": 366,
      "ʈ": 367,
      "ʊ": 368,
      "ʋ": 369,
      "ʌ": 370,
      "ʎ": 371,
      "ʏ": 372,
      "ʑ": 373,
      "ʒ": 374,
      "ʔ": 375,
      "ʕ": 376,
      "ʙ": 377,
      "ʝ": 378,
      "ʟ": 379,
      "ʤ": 380,
      "ʰ": 381,
      "ʱ": 382,
      "ʲ": 383,
      "ʷ": 384,
      "ʺ": 385,
      "ʻ": 386,
      "ʼ": 387,
      "ʽ": 388,
      "ʾ": 389,
      "ʿ": 390,
      "ˀ": 391,
      "˃": 392,
      "ˆ": 393,
      "ˈ": 394,
      "ˉ": 395,
      "ˊ": 396,
      "ˌ": 397,
      "ː": 398,
      "ˑ": 399,
      "˖": 400,
      "˗": 401,
      "˘": 402,
      "˚": 403,
      "˜": 404,
      "˝": 405,
      "ˮ": 406,
      "˴": 407,
      "˸": 408,
      "̀": 409,
      "́": 410,
      "̂": 411,
      "̃": 412,
      "̄": 413,
      "̇": 414,
      "̈": 415,
      "̉": 416,
      "̊": 417,
      "̋": 418,
      "̌": 419,
      "̍": 420,
      "̎": 421,
      "̏": 422,
      "̐": 423,
      "̒": 424,
      "̓": 425,
      "̔": 426,
      "̕": 427,
      "̢": 428,
      "̣": 429,
      "̤": 430,
      "̥": 431,
      "̧": 432,
      "̨": 433,
      "̩": 434,
      "̪": 435,
      "̭": 436,
      "̯": 437,
      "̵": 438,
      "̶": 439,
      "̸": 440,
      "̓": 441,
      "͙": 442,
      "͞": 443,
      "͡": 444,
      "ͩ": 445,
      "ͬ": 446,
      "ʹ": 447,
      "͵": 448,
      "΄": 449,
      "Ό": 450,
      "Ύ": 451,
      "ΐ": 452,
      "Α": 453,
      "Β": 454,
      "Γ": 455,
      "Δ": 456,
      "Ε": 457,
      "Ζ": 458,
      "Η": 459,
      "Θ": 460,
      "Ι": 461,
      "Κ": 462,
      "Λ": 463,
      "Μ": 464,
      "Ν": 465,
      "Ξ": 466,
      "Ο": 467,
      "Π": 468,
      "Ρ": 469,
      "Σ": 470,
      "Τ": 471,
      "Υ": 472,
      "Φ": 473,
      "Χ": 474,
      "Ψ": 475,
      "Ω": 476,
      "ά": 477,
      "έ": 478,
      "ή": 479,
      "ί": 480,
      "α": 481,
      "β": 482,
      "γ": 483,
      "δ": 484,
      "ε": 485,
      "ζ": 486,
      "η": 487,
      "θ": 488,
      "ι": 489,
      "κ": 490,
      "λ": 491,
      "μ": 492,
      "ν": 493,
      "ξ": 494,
      "ο": 495,
      "π": 496,
      "ρ": 497,
      "ς": 498,
      "σ": 499,
      "τ": 500,
      "υ": 501,
      "φ": 502,
      "χ": 503,
      "ψ": 504,
      "ω": 505,
      "ό": 506,
      "ύ": 507,
      "ώ": 508,
      "Ϝ": 509,
      "ϩ": 510,
      "ϸ": 511,
      "Ђ": 512,
      "Є": 513,
      "І": 514,
      "Ј": 515,
      "Ў": 516,
      "А": 517,
      "Б": 518,
      "В": 519,
      "Г": 520,
      "Д": 521,
      "Е": 522,
      "Ж": 523,
      "З": 524,
      "И": 525,
      "Й": 526,
      "К": 527,
      "Л": 528,
      "М": 529,
      "Н": 530,
      "О": 531,
      "П": 532,
      "Р": 533,
      "С": 534,
      "Т": 535,
      "У": 536,
      "Ф": 537,
      "Х": 538,
      "Ц": 539,
      "Ч": 540,
      "Ш": 541,
      "Щ": 542,
      "Э": 543,
      "Ю": 544,
      "Я": 545,
      "а": 546,
      "б": 547,
      "в": 548,
      "г": 549,
      "д": 550,
      "е": 551,
      "ж": 552,
      "з": 553,
      "и": 554,
      "й": 555,
      "к": 556,
      "л": 557,
      "м": 558,
      "н": 559,
      "о": 560,
      "п": 561,
      "р": 562,
      "с": 563,
      "т": 564,
      "у": 565,
      "ф": 566,
      "х": 567,
      "ц": 568,
      "ч": 569,
      "ш": 570,
      "щ": 571,
      "ъ": 572,
      "ы": 573,
      "ь": 574,
      "э": 575,
      "ю": 576,
      "я": 577,
      "ё": 578,
      "є": 579,
      "ѕ": 580,
      "і": 581,
      "ї": 582,
      "ј": 583,
      "њ": 584,
      "ћ": 585,
      "ѝ": 586,
      "ў": 587,
      "ѣ": 588,
      "Ѳ": 589,
      "ѵ": 590,
      "҆": 591,
      "ғ": 592,
      "җ": 593,
      "ҝ": 594,
      "ң": 595,
      "Ү": 596,
      "ү": 597,
      "ҳ": 598,
      "һ": 599,
      "Ӏ": 600,
      "ӏ": 601,
      "ӕ": 602,
      "ә": 603,
      "ӣ": 604,
      "ӧ": 605,
      "ө": 606,
      "ӵ": 607,
      "Ԍ": 608,
      "ԑ": 609,
      "Ԩ": 610,
      "ԫ": 611,
      "Բ": 612,
      "Դ": 613,
      "Ե": 614,
      "Ի": 615,
      "Լ": 616,
      "Ծ": 617,
      "Կ": 618,
      "Հ": 619,
      "Ն": 620,
      "Ո": 621,
      "Պ": 622,
      "Ս": 623,
      "Վ": 624,
      "Ւ": 625,
      "Օ": 626,
      "ՙ": 627,
      "՚": 628,
      "՛": 629,
      "՝": 630,
      "ա": 631,
      "բ": 632,
      "գ": 633,
      "դ": 634,
      "ե": 635,
      "զ": 636,
      "է": 637,
      "ը": 638,
      "թ": 639,
      "ժ": 640,
      "ի": 641,
      "լ": 642,
      "խ": 643,
      "կ": 644,
      "հ": 645,
      "ձ": 646,
      "ղ": 647,
      "մ": 648,
      "յ": 649,
      "ն": 650,
      "ո": 651,
      "չ": 652,
      "պ": 653,
      "ռ": 654,
      "ս": 655,
      "վ": 656,
      "տ": 657,
      "ր": 658,
      "ց": 659,
      "ւ": 660,
      "ք": 661,
      "֍": 662,
      "֏": 663,
      "֯": 664,
      "ְ": 665,
      "ֲ": 666,
      "ִ": 667,
      "ֵ": 668,
      "ֶ": 669,
      "ַ": 670,
      "ָ": 671,
      "ֹ": 672,
      "ּ": 673,
      "ֽ": 674,
      "־": 675,
      "׀": 676,
      "ׁ": 677,
      "ׂ": 678,
      "ׄ": 679,
      "א": 680,
      "ב": 681,
      "ג": 682,
      "ד": 683,
      "ה": 684,
      "ו": 685,
      "ז": 686,
      "ח": 687,
      "ט": 688,
      "י": 689,
      "ך": 690,
      "כ": 691,
      "ל": 692,
      "ם": 693,
      "מ": 694,
      "ן": 695,
      "נ": 696,
      "ס": 697,
      "ע": 698,
      "ף": 699,
      "פ": 700,
      "ץ": 701,
      "צ": 702,
      "ק": 703,
      "ר": 704,
      "ש": 705,
      "ת": 706,
      "؄": 707,
      "؋": 708,
      "،": 709,
      "ؔ": 710,
      "ؘ": 711,
      "؛": 712,
      "؟": 713,
      "ء": 714,
      "آ": 715,
      "أ": 716,
      "ؤ": 717,
      "إ": 718,
      "ئ": 719,
      "ا": 720,
      "ب": 721,
      "ة": 722,
      "ت": 723,
      "ث": 724,
      "ج": 725,
      "ح": 726,
      "خ": 727,
      "د": 728,
      "ذ": 729,
      "ر": 730,
      "ز": 731,
      "س": 732,
      "ش": 733,
      "ص": 734,
      "ض": 735,
      "ط": 736,
      "ظ": 737,
      "ع": 738,
      "غ": 739,
      "ـ": 740,
      "ف": 741,
      "ق": 742,
      "ك": 743,
      "ل": 744,
      "م": 745,
      "ن": 746,
      "ه": 747,
      "و": 748,
      "ى": 749,
      "ي": 750,
      "ً": 751,
      "ٌ": 752,
      "ٍ": 753,
      "َ": 754,
      "ُ": 755,
      "ِ": 756,
      "ّ": 757,
      "ْ": 758,
      "ٖ": 759,
      "ٗ": 760,
      "١": 761,
      "٦": 762,
      "٩": 763,
      "٪": 764,
      "٬": 765,
      "٭": 766,
      "ٰ": 767,
      "ٱ": 768,
      "ٹ": 769,
      "ٺ": 770,
      "ٻ": 771,
      "ټ": 772,
      "ٽ": 773,
      "پ": 774,
      "ٿ": 775,
      "ڀ": 776,
      "ځ": 777,
      "څ": 778,
      "چ": 779,
      "ڇ": 780,
      "ڈ": 781,
      "ډ": 782,
      "ڊ": 783,
      "ڌ": 784,
      "ڏ": 785,
      "ڑ": 786,
      "ړ": 787,
      "ڕ": 788,
      "ږ": 789,
      "ڙ": 790,
      "ښ": 791,
      "ڣ": 792,
      "ڤ": 793,
      "ڦ": 794,
      "ک": 795,
      "ڪ": 796,
      "ګ": 797,
      "ڬ": 798,
      "گ": 799,
      "ڳ": 800,
      "ڵ": 801,
      "ں": 802,
      "ڻ": 803,
      "ھ": 804,
      "ہ": 805,
      "ۄ": 806,
      "ۆ": 807,
      "ۇ": 808,
      "ی": 809,
      "ۍ": 810,
      "ێ": 811,
      "ۏ": 812,
      "ې": 813,
      "ے": 814,
      "۔": 815,
      "ە": 816,
      "۞": 817,
      "ۡ": 818,
      "۩": 819,
      "ۭ": 820,
      "۰": 821,
      "۱": 822,
      "۲": 823,
      "۳": 824,
      "۴": 825,
      "۵": 826,
      "۶": 827,
      "۷": 828,
      "۸": 829,
      "۹": 830,
      "۽": 831,
      "۾": 832,
      "ܐ": 833,
      "ܒ": 834,
      "ܗ": 835,
      "ܘ": 836,
      "ܛ": 837,
      "ܝ": 838,
      "ܢ": 839,
      "ܣ": 840,
      "ܦ": 841,
      "ܩ": 842,
      "ܪ": 843,
      "ܬ": 844,
      "ހ": 845,
      "ނ": 846,
      "ރ": 847,
      "ބ": 848,
      "ޅ": 849,
      "އ": 850,
      "ވ": 851,
      "މ": 852,
      "ދ": 853,
      "ތ": 854,
      "ލ": 855,
      "ގ": 856,
      "ޔ": 857,
      "ޖ": 858,
      "ަ": 859,
      "ާ": 860,
      "ި": 861,
      "ީ": 862,
      "ު": 863,
      "ޫ": 864,
      "ެ": 865,
      "ޭ": 866,
      "ް": 867,
      "ߢ": 868,
      "߮": 869,
      "߰": 870,
      "ࠕ": 871,
      "ࡕ": 872,
      "ࡦ": 873,
      "࡮": 874,
      "ࢋ": 875,
      "ࢍ": 876,
      "ँ": 877,
      "ं": 878,
      "ः": 879,
      "ऄ": 880,
      "अ": 881,
      "आ": 882,
      "इ": 883,
      "ई": 884,
      "उ": 885,
      "ऊ": 886,
      "ऋ": 887,
      "ऌ": 888,
      "ऍ": 889,
      "ऎ": 890,
      "ए": 891,
      "ऐ": 892,
      "ऑ": 893,
      "ऒ": 894,
      "ओ": 895,
      "औ": 896,
      "क": 897,
      "ख": 898,
      "ग": 899,
      "घ": 900,
      "ङ": 901,
      "च": 902,
      "छ": 903,
      "ज": 904,
      "झ": 905,
      "ञ": 906,
      "ट": 907,
      "ठ": 908,
      "ड": 909,
      "ढ": 910,
      "ण": 911,
      "त": 912,
      "थ": 913,
      "द": 914,
      "ध": 915,
      "न": 916,
      "ऩ": 917,
      "प": 918,
      "फ": 919,
      "ब": 920,
      "भ": 921,
      "म": 922,
      "य": 923,
      "र": 924,
      "ऱ": 925,
      "ल": 926,
      "ळ": 927,
      "ऴ": 928,
      "व": 929,
      "श": 930,
      "ष": 931,
      "स": 932,
      "ह": 933,
      "ऺ": 934,
      "ऻ": 935,
      "़": 936,
      "ऽ": 937,
      "ा": 938,
      "ि": 939,
      "ी": 940,
      "ु": 941,
      "ू": 942,
      "ृ": 943,
      "ॄ": 944,
      "ॅ": 945,
      "ॆ": 946,
      "े": 947,
      "ै": 948,
      "ॉ": 949,
      "ॊ": 950,
      "ो": 951,
      "ौ": 952,
      "्": 953,
      "ॎ": 954,
      "ॐ": 955,
      "॑": 956,
      "॒": 957,
      "॓": 958,
      "॔": 959,
      "ॕ": 960,
      "ॖ": 961,
      "क़": 962,
      "ख़": 963,
      "ग़": 964,
      "ज़": 965,
      "ड़": 966,
      "ढ़": 967,
      "फ़": 968,
      "य़": 969,
      "ॠ": 970,
      "ॡ": 971,
      "ॢ": 972,
      "ॣ": 973,
      "।": 974,
      "॥": 975,
      "०": 976,
      "१": 977,
      "२": 978,
      "३": 979,
      "४": 980,
      "५": 981,
      "६": 982,
      "७": 983,
      "८": 984,
      "९": 985,
      "॰": 986,
      "ॱ": 987,
      "ॲ": 988,
      "ॴ": 989,
      "ॻ": 990,
      "ॼ": 991,
      "ॽ": 992,
      "ॾ": 993,
      "ॿ": 994,
      "ঁ": 995,
      "ং": 996,
      "অ": 997,
      "আ": 998,
      "ই": 999,
      "উ": 1000,
      "এ": 1001,
      "ও": 1002,
      "ক": 1003,
      "খ": 1004,
      "গ": 1005,
      "ঘ": 1006,
      "ঙ": 1007,
      "চ": 1008,
      "ছ": 1009,
      "জ": 1010,
      "ঞ": 1011,
      "ট": 1012,
      "ঠ": 1013,
      "ড": 1014,
      "ঢ": 1015,
      "ণ": 1016,
      "ত": 1017,
      "থ": 1018,
      "দ": 1019,
      "ধ": 1020,
      "ন": 1021,
      "প": 1022,
      "ফ": 1023,
      "ব": 1024,
      "ভ": 1025,
      "ম": 1026,
      "য": 1027,
      "র": 1028,
      "ল": 1029,
      "শ": 1030,
      "ষ": 1031,
      "স": 1032,
      "হ": 1033,
      "়": 1034,
      "া": 1035,
      "ি": 1036,
      "ী": 1037,
      "ু": 1038,
      "ূ": 1039,
      "ৃ": 1040,
      "ে": 1041,
      "ৈ": 1042,
      "ো": 1043,
      "ৌ": 1044,
      "্": 1045,
      "ৎ": 1046,
      "০": 1047,
      "১": 1048,
      "২": 1049,
      "৩": 1050,
      "৪": 1051,
      "৫": 1052,
      "৬": 1053,
      "৭": 1054,
      "৮": 1055,
      "৯": 1056,
      "ৰ": 1057,
      "ৱ": 1058,
      "৳": 1059,
      "৷": 1060,
      "ਂ": 1061,
      "ਅ": 1062,
      "ਆ": 1063,
      "ਇ": 1064,
      "ਈ": 1065,
      "ਉ": 1066,
      "ਏ": 1067,
      "ਔ": 1068,
      "ਕ": 1069,
      "ਖ": 1070,
      "ਗ": 1071,
      "ਘ": 1072,
      "ਚ": 1073,
      "ਛ": 1074,
      "ਜ": 1075,
      "ਝ": 1076,
      "ਟ": 1077,
      "ਠ": 1078,
      "ਡ": 1079,
      "ਣ": 1080,
      "ਤ": 1081,
      "ਥ": 1082,
      "ਦ": 1083,
      "ਨ": 1084,
      "ਪ": 1085,
      "ਫ": 1086,
      "ਬ": 1087,
      "ਭ": 1088,
      "ਮ": 1089,
      "ਯ": 1090,
      "ਰ": 1091,
      "ਲ": 1092,
      "ਵ": 1093,
      "ਸ": 1094,
      "ਹ": 1095,
      "਼": 1096,
      "ਾ": 1097,
      "ਿ": 1098,
      "ੀ": 1099,
      "ੁ": 1100,
      "ੂ": 1101,
      "ੇ": 1102,
      "ੈ": 1103,
      "ੋ": 1104,
      "ੌ": 1105,
      "੍": 1106,
      "ੜ": 1107,
      "੦": 1108,
      "੧": 1109,
      "੨": 1110,
      "ੰ": 1111,
      "ੱ": 1112,
      "ੳ": 1113,
      "ં": 1114,
      "અ": 1115,
      "આ": 1116,
      "ઇ": 1117,
      "ઉ": 1118,
      "એ": 1119,
      "ઓ": 1120,
      "ક": 1121,
      "ખ": 1122,
      "ગ": 1123,
      "ચ": 1124,
      "છ": 1125,
      "જ": 1126,
      "ઞ": 1127,
      "ટ": 1128,
      "ડ": 1129,
      "ણ": 1130,
      "ત": 1131,
      "થ": 1132,
      "દ": 1133,
      "ધ": 1134,
      "ન": 1135,
      "પ": 1136,
      "ફ": 1137,
      "બ": 1138,
      "ભ": 1139,
      "મ": 1140,
      "ય": 1141,
      "ર": 1142,
      "લ": 1143,
      "ળ": 1144,
      "વ": 1145,
      "શ": 1146,
      "ષ": 1147,
      "સ": 1148,
      "હ": 1149,
      "ા": 1150,
      "િ": 1151,
      "ી": 1152,
      "ુ": 1153,
      "ૂ": 1154,
      "ે": 1155,
      "ૉ": 1156,
      "ો": 1157,
      "્": 1158,
      "૪": 1159,
      "૬": 1160,
      "૯": 1161,
      "૰": 1162,
      "ଆ": 1163,
      "ଉ": 1164,
      "ଏ": 1165,
      "ଗ": 1166,
      "ଙ": 1167,
      "ଚ": 1168,
      "ଛ": 1169,
      "ଜ": 1170,
      "ଡ": 1171,
      "ତ": 1172,
      "ଥ": 1173,
      "ଦ": 1174,
      "ଧ": 1175,
      "ନ": 1176,
      "ପ": 1177,
      "ବ": 1178,
      "ଭ": 1179,
      "ମ": 1180,
      "ର": 1181,
      "ଲ": 1182,
      "ଳ": 1183,
      "ସ": 1184,
      "ହ": 1185,
      "଼": 1186,
      "ା": 1187,
      "ି": 1188,
      "ୀ": 1189,
      "ୁ": 1190,
      "େ": 1191,
      "ୌ": 1192,
      "୍": 1193,
      "୦": 1194,
      "୧": 1195,
      "୫": 1196,
      "அ": 1197,
      "ஆ": 1198,
      "இ": 1199,
      "உ": 1200,
      "எ": 1201,
      "ஏ": 1202,
      "ஐ": 1203,
      "ஒ": 1204,
      "ஓ": 1205,
      "க": 1206,
      "ங": 1207,
      "ச": 1208,
      "ஜ": 1209,
      "ட": 1210,
      "ண": 1211,
      "த": 1212,
      "ந": 1213,
      "ன": 1214,
      "ப": 1215,
      "ம": 1216,
      "ய": 1217,
      "ர": 1218,
      "ற": 1219,
      "ல": 1220,
      "ள": 1221,
      "ழ": 1222,
      "வ": 1223,
      "ஷ": 1224,
      "ஸ": 1225,
      "ஹ": 1226,
      "ா": 1227,
      "ி": 1228,
      "ீ": 1229,
      "ு": 1230,
      "ூ": 1231,
      "ெ": 1232,
      "ே": 1233,
      "ை": 1234,
      "ொ": 1235,
      "ோ": 1236,
      "்": 1237,
      "ం": 1238,
      "అ": 1239,
      "ఆ": 1240,
      "ఇ": 1241,
      "ఈ": 1242,
      "ఉ": 1243,
      "ఎ": 1244,
      "ఏ": 1245,
      "ఒ": 1246,
      "క": 1247,
      "గ": 1248,
      "చ": 1249,
      "ఛ": 1250,
      "జ": 1251,
      "ట": 1252,
      "ఠ": 1253,
      "డ": 1254,
      "ణ": 1255,
      "త": 1256,
      "థ": 1257,
      "ద": 1258,
      "ధ": 1259,
      "న": 1260,
      "ప": 1261,
      "ఫ": 1262,
      "బ": 1263,
      "భ": 1264,
      "మ": 1265,
      "య": 1266,
      "ర": 1267,
      "ల": 1268,
      "ళ": 1269,
      "వ": 1270,
      "శ": 1271,
      "ష": 1272,
      "స": 1273,
      "హ": 1274,
      "ా": 1275,
      "ి": 1276,
      "ీ": 1277,
      "ు": 1278,
      "ూ": 1279,
      "ృ": 1280,
      "ె": 1281,
      "ే": 1282,
      "ై": 1283,
      "ొ": 1284,
      "ో": 1285,
      "్": 1286,
      "౯": 1287,
      "౼": 1288,
      "ಂ": 1289,
      "ಅ": 1290,
      "ಆ": 1291,
      "ಇ": 1292,
      "ಈ": 1293,
      "ಎ": 1294,
      "ಏ": 1295,
      "ಓ": 1296,
      "ಕ": 1297,
      "ಗ": 1298,
      "ಘ": 1299,
      "ಚ": 1300,
      "ಛ": 1301,
      "ಜ": 1302,
      "ಟ": 1303,
      "ಠ": 1304,
      "ಡ": 1305,
      "ಣ": 1306,
      "ತ": 1307,
      "ದ": 1308,
      "ಧ": 1309,
      "ನ": 1310,
      "ಪ": 1311,
      "ಬ": 1312,
      "ಭ": 1313,
      "ಮ": 1314,
      "ಯ": 1315,
      "ರ": 1316,
      "ಲ": 1317,
      "ಳ": 1318,
      "ವ": 1319,
      "ಶ": 1320,
      "ಷ": 1321,
      "ಸ": 1322,
      "ಹ": 1323,
      "ಾ": 1324,
      "ಿ": 1325,
      "ೀ": 1326,
      "ು": 1327,
      "ೂ": 1328,
      "ೆ": 1329,
      "ೇ": 1330,
      "ೈ": 1331,
      "ೊ": 1332,
      "ೋ": 1333,
      "್": 1334,
      "೪": 1335,
      "೫": 1336,
      "೭": 1337,
      "ം": 1338,
      "അ": 1339,
      "ആ": 1340,
      "ഇ": 1341,
      "ഉ": 1342,
      "എ": 1343,
      "ഏ": 1344,
      "ഒ": 1345,
      "ക": 1346,
      "ഖ": 1347,
      "ഗ": 1348,
      "ങ": 1349,
      "ച": 1350,
      "ഛ": 1351,
      "ജ": 1352,
      "ഞ": 1353,
      "ട": 1354,
      "ഡ": 1355,
      "ണ": 1356,
      "ത": 1357,
      "ഥ": 1358,
      "ദ": 1359,
      "ധ": 1360,
      "ന": 1361,
      "പ": 1362,
      "ഫ": 1363,
      "ബ": 1364,
      "ഭ": 1365,
      "മ": 1366,
      "യ": 1367,
      "ര": 1368,
      "റ": 1369,
      "ല": 1370,
      "ള": 1371,
      "വ": 1372,
      "ശ": 1373,
      "ഷ": 1374,
      "സ": 1375,
      "ഹ": 1376,
      "ാ": 1377,
      "ി": 1378,
      "ീ": 1379,
      "ു": 1380,
      "ൂ": 1381,
      "ൃ": 1382,
      "െ": 1383,
      "േ": 1384,
      "ൊ": 1385,
      "ോ": 1386,
      "്": 1387,
      "ൻ": 1388,
      "ർ": 1389,
      "ൽ": 1390,
      "ൾ": 1391,
      "ං": 1392,
      "අ": 1393,
      "ආ": 1394,
      "ඉ": 1395,
      "උ": 1396,
      "එ": 1397,
      "ඒ": 1398,
      "ඔ": 1399,
      "ක": 1400,
      "ග": 1401,
      "ඟ": 1402,
      "ච": 1403,
      "ජ": 1404,
      "ට": 1405,
      "ඩ": 1406,
      "ණ": 1407,
      "ත": 1408,
      "ථ": 1409,
      "ද": 1410,
      "න": 1411,
      "ඳ": 1412,
      "ප": 1413,
      "බ": 1414,
      "භ": 1415,
      "ම": 1416,
      "ඹ": 1417,
      "ය": 1418,
      "ර": 1419,
      "ල": 1420,
      "ව": 1421,
      "ශ": 1422,
      "ෂ": 1423,
      "ස": 1424,
      "හ": 1425,
      "ළ": 1426,
      "්": 1427,
      "ා": 1428,
      "ැ": 1429,
      "ි": 1430,
      "ී": 1431,
      "ු": 1432,
      "ූ": 1433,
      "ෙ": 1434,
      "ේ": 1435,
      "ො": 1436,
      "ෝ": 1437,
      "ก": 1438,
      "ข": 1439,
      "ค": 1440,
      "ง": 1441,
      "จ": 1442,
      "ฉ": 1443,
      "ช": 1444,
      "ซ": 1445,
      "ญ": 1446,
      "ฎ": 1447,
      "ฐ": 1448,
      "ณ": 1449,
      "ด": 1450,
      "ต": 1451,
      "ถ": 1452,
      "ท": 1453,
      "ธ": 1454,
      "น": 1455,
      "บ": 1456,
      "ป": 1457,
      "ผ": 1458,
      "พ": 1459,
      "ฟ": 1460,
      "ภ": 1461,
      "ม": 1462,
      "ย": 1463,
      "ร": 1464,
      "ล": 1465,
      "ว": 1466,
      "ศ": 1467,
      "ษ": 1468,
      "ส": 1469,
      "ห": 1470,
      "อ": 1471,
      "ฮ": 1472,
      "ะ": 1473,
      "ั": 1474,
      "า": 1475,
      "ำ": 1476,
      "ิ": 1477,
      "ี": 1478,
      "ื": 1479,
      "ุ": 1480,
      "ู": 1481,
      "ฺ": 1482,
      "฿": 1483,
      "เ": 1484,
      "แ": 1485,
      "โ": 1486,
      "ใ": 1487,
      "ไ": 1488,
      "็": 1489,
      "่": 1490,
      "้": 1491,
      "์": 1492,
      "ํ": 1493,
      "๏": 1494,
      "๑": 1495,
      "๒": 1496,
      "๓": 1497,
      "๔": 1498,
      "๕": 1499,
      "๖": 1500,
      "๗": 1501,
      "๘": 1502,
      "๙": 1503,
      "ຂ": 1504,
      "ງ": 1505,
      "ຈ": 1506,
      "ນ": 1507,
      "ບ": 1508,
      "ຟ": 1509,
      "ວ": 1510,
      "ອ": 1511,
      "ັ": 1512,
      "ຸ": 1513,
      "ຽ": 1514,
      "ໃ": 1515,
      "ໄ": 1516,
      "່": 1517,
      "້": 1518,
      "ໍ": 1519,
      "་": 1520,
      "།": 1521,
      "༏": 1522,
      "༒": 1523,
      "༓": 1524,
      "༺": 1525,
      "༻": 1526,
      "ཁ": 1527,
      "ག": 1528,
      "ང": 1529,
      "ཅ": 1530,
      "ཆ": 1531,
      "ཇ": 1532,
      "ཊ": 1533,
      "ཎ": 1534,
      "ཏ": 1535,
      "ཐ": 1536,
      "ད": 1537,
      "ན": 1538,
      "པ": 1539,
      "ཕ": 1540,
      "བ": 1541,
      "མ": 1542,
      "ཙ": 1543,
      "ཚ": 1544,
      "འ": 1545,
      "ཡ": 1546,
      "ར": 1547,
      "ལ": 1548,
      "ཤ": 1549,
      "ས": 1550,
      "ཧ": 1551,
      "ཨ": 1552,
      "ི": 1553,
      "ུ": 1554,
      "ེ": 1555,
      "ོ": 1556,
      "ཾ": 1557,
      "ྃ": 1558,
      "ྐ": 1559,
      "ྒ": 1560,
      "ྗ": 1561,
      "ྟ": 1562,
      "ྡ": 1563,
      "ྣ": 1564,
      "ྤ": 1565,
      "ྦ": 1566,
      "ྨ": 1567,
      "ྩ": 1568,
      "ྫ": 1569,
      "ྱ": 1570,
      "ྲ": 1571,
      "ླ": 1572,
      "ྴ": 1573,
      "ྷ": 1574,
      "࿐": 1575,
      "က": 1576,
      "ဂ": 1577,
      "င": 1578,
      "စ": 1579,
      "ဆ": 1580,
      "ည": 1581,
      "တ": 1582,
      "န": 1583,
      "ပ": 1584,
      "ဖ": 1585,
      "ဗ": 1586,
      "ဘ": 1587,
      "မ": 1588,
      "ရ": 1589,
      "လ": 1590,
      "သ": 1591,
      "အ": 1592,
      "ဩ": 1593,
      "ာ": 1594,
      "ိ": 1595,
      "ီ": 1596,
      "ု": 1597,
      "ူ": 1598,
      "ေ": 1599,
      "ံ": 1600,
      "း": 1601,
      "္": 1602,
      "်": 1603,
      "ြ": 1604,
      "ှ": 1605,
      "၄": 1606,
      "၊": 1607,
      "။": 1608,
      "ა": 1609,
      "ბ": 1610,
      "გ": 1611,
      "დ": 1612,
      "ე": 1613,
      "ვ": 1614,
      "ზ": 1615,
      "თ": 1616,
      "ი": 1617,
      "კ": 1618,
      "ლ": 1619,
      "მ": 1620,
      "ნ": 1621,
      "ო": 1622,
      "რ": 1623,
      "ს": 1624,
      "ტ": 1625,
      "უ": 1626,
      "ფ": 1627,
      "ქ": 1628,
      "ღ": 1629,
      "ყ": 1630,
      "შ": 1631,
      "ჩ": 1632,
      "ც": 1633,
      "ძ": 1634,
      "ხ": 1635,
      "ჰ": 1636,
      "ᄉ": 1637,
      "ᄌ": 1638,
      "ᅦ": 1639,
      "ᅧ": 1640,
      "ᅩ": 1641,
      "ᅫ": 1642,
      "ᅬ": 1643,
      "ᅵ": 1644,
      "ᆞ": 1645,
      "ሁ": 1646,
      "ህ": 1647,
      "ሆ": 1648,
      "ለ": 1649,
      "ሌ": 1650,
      "ል": 1651,
      "ሎ": 1652,
      "ሓ": 1653,
      "መ": 1654,
      "ማ": 1655,
      "ም": 1656,
      "ረ": 1657,
      "ሩ": 1658,
      "ሪ": 1659,
      "ር": 1660,
      "ሮ": 1661,
      "ሰ": 1662,
      "ሱ": 1663,
      "ሴ": 1664,
      "ስ": 1665,
      "ሽ": 1666,
      "ቃ": 1667,
      "ቅ": 1668,
      "ቆ": 1669,
      "በ": 1670,
      "ባ": 1671,
      "ብ": 1672,
      "ተ": 1673,
      "ቴ": 1674,
      "ት": 1675,
      "ቶ": 1676,
      "ች": 1677,
      "ኋ": 1678,
      "ነ": 1679,
      "ን": 1680,
      "ኖ": 1681,
      "ኛ": 1682,
      "ኝ": 1683,
      "አ": 1684,
      "ኢ": 1685,
      "እ": 1686,
      "ከ": 1687,
      "ካ": 1688,
      "ክ": 1689,
      "ወ": 1690,
      "ው": 1691,
      "ዎ": 1692,
      "ዕ": 1693,
      "የ": 1694,
      "ዪ": 1695,
      "ያ": 1696,
      "ይ": 1697,
      "ዮ": 1698,
      "ደ": 1699,
      "ዲ": 1700,
      "ዳ": 1701,
      "ድ": 1702,
      "ገ": 1703,
      "ጣ": 1704,
      "ጥ": 1705,
      "ጨ": 1706,
      "ጵ": 1707,
      "ፍ": 1708,
      "፡": 1709,
      "Ꮋ": 1710,
      "ᐃ": 1711,
      "ᐅ": 1712,
      "ᐱ": 1713,
      "ᐳ": 1714,
      "ᑭ": 1715,
      "ᒍ": 1716,
      "ᒥ": 1717,
      "ᓈ": 1718,
      "ᔅ": 1719,
      "ᕆ": 1720,
      "ᕐ": 1721,
      "ᕗ": 1722,
      "ᖅ": 1723,
      "ᖩ": 1724,
      "ក": 1725,
      "ខ": 1726,
      "ង": 1727,
      "ច": 1728,
      "ញ": 1729,
      "ត": 1730,
      "ថ": 1731,
      "ទ": 1732,
      "ធ": 1733,
      "ន": 1734,
      "ប": 1735,
      "ព": 1736,
      "ភ": 1737,
      "ម": 1738,
      "យ": 1739,
      "រ": 1740,
      "ល": 1741,
      "ស": 1742,
      "ហ": 1743,
      "អ": 1744,
      "ា": 1745,
      "ុ": 1746,
      "ូ": 1747,
      "ួ": 1748,
      "ឿ": 1749,
      "េ": 1750,
      "ែ": 1751,
      "ៃ": 1752,
      "ំ": 1753,
      "៉": 1754,
      "់": 1755,
      "្": 1756,
      "។": 1757,
      "១": 1758,
      "២": 1759,
      "៧": 1760,
      "៩": 1761,
      "᠂": 1762,
      "ᤀ": 1763,
      "ᤃ": 1764,
      "ᤈ": 1765,
      "ᤌ": 1766,
      "ᤍ": 1767,
      "ᤐ": 1768,
      "ᤒ": 1769,
      "ᤔ": 1770,
      "ᤕ": 1771,
      "ᤖ": 1772,
      "ᤙ": 1773,
      "ᤛ": 1774,
      "ᤜ": 1775,
      "ᤠ": 1776,
      "ᤡ": 1777,
      "ᤢ": 1778,
      "ᤥ": 1779,
      "ᤧ": 1780,
      "ᤨ": 1781,
      "ᤰ": 1782,
      "ᤱ": 1783,
      "ᤴ": 1784,
      "ᮧ": 1785,
      "᱐": 1786,
      "᱑": 1787,
      "᱖": 1788,
      "ᱟ": 1789,
      "ᱤ": 1790,
      "ᱦ": 1791,
      "ᱨ": 1792,
      "ᱩ": 1793,
      "ᱭ": 1794,
      "ᱮ": 1795,
      "ᱯ": 1796,
      "ᱵ": 1797,
      "ᲃ": 1798,
      "᳘": 1799,
      "᳚": 1800,
      "᳞": 1801,
      "ᳪ": 1802,
      "᳭": 1803,
      "ᴐ": 1804,
      "ᴼ": 1805,
      "ᵒ": 1806,
      "ᵻ": 1807,
      "ḍ": 1808,
      "ḗ": 1809,
      "Ḥ": 1810,
      "ḥ": 1811,
      "Ḩ": 1812,
      "ḷ": 1813,
      "ṃ": 1814,
      "ṅ": 1815,
      "ṇ": 1816,
      "ṉ": 1817,
      "ṛ": 1818,
      "ṟ": 1819,
      "ṣ": 1820,
      "ṭ": 1821,
      "ṳ": 1822,
      "ṵ": 1823,
      "ẃ": 1824,
      "ẓ": 1825,
      "ạ": 1826,
      "ả": 1827,
      "ấ": 1828,
      "Ầ": 1829,
      "ầ": 1830,
      "Ẩ": 1831,
      "ẩ": 1832,
      "ẫ": 1833,
      "ậ": 1834,
      "ắ": 1835,
      "ẹ": 1836,
      "ẻ": 1837,
      "ẽ": 1838,
      "Ế": 1839,
      "ế": 1840,
      "ề": 1841,
      "ể": 1842,
      "ễ": 1843,
      "Ệ": 1844,
      "ệ": 1845,
      "ỉ": 1846,
      "ị": 1847,
      "ọ": 1848,
      "ỏ": 1849,
      "ố": 1850,
      "ồ": 1851,
      "ổ": 1852,
      "ỗ": 1853,
      "Ộ": 1854,
      "ộ": 1855,
      "ớ": 1856,
      "ờ": 1857,
      "ở": 1858,
      "ợ": 1859,
      "ụ": 1860,
      "ủ": 1861,
      "Ứ": 1862,
      "ứ": 1863,
      "ừ": 1864,
      "Ữ": 1865,
      "ữ": 1866,
      "ự": 1867,
      "ỹ": 1868,
      "ἀ": 1869,
      "ἅ": 1870,
      "Ἀ": 1871,
      "ἐ": 1872,
      "ἔ": 1873,
      "Ἑ": 1874,
      "ἱ": 1875,
      "ἷ": 1876,
      "ὁ": 1877,
      "ὐ": 1878,
      "ὕ": 1879,
      "ὰ": 1880,
      "ὶ": 1881,
      "ῆ": 1882,
      "ῖ": 1883,
      "ῥ": 1884,
      "ῶ": 1885,
      " ": 1886,
      " ": 1887,
      " ": 1888,
      "​": 1889,
      "‌": 1890,
      "‍": 1891,
      "‎": 1892,
      "‏": 1893,
      "‐": 1894,
      "‑": 1895,
      "‒": 1896,
      "–": 1897,
      "—": 1898,
      "―": 1899,
      "‖": 1900,
      "‘": 1901,
      "’": 1902,
      "‚": 1903,
      "‛": 1904,
      "“": 1905,
      "”": 1906,
      "„": 1907,
      "‟": 1908,
      "†": 1909,
      "‡": 1910,
      "•": 1911,
      "‣": 1912,
      "․": 1913,
      "…": 1914,
      "‧": 1915,
      " ": 1916,
      " ": 1917,
      "‪": 1918,
      "‫": 1919,
      "‬": 1920,
      " ": 1921,
      "‰": 1922,
      "′": 1923,
      "″": 1924,
      "‹": 1925,
      "›": 1926,
      "※": 1927,
      "‼": 1928,
      "‾": 1929,
      "‿": 1930,
      "⁃": 1931,
      "⁄": 1932,
      "⁇": 1933,
      "⁠": 1934,
      "⁣": 1935,
      "⁪": 1936,
      "⁯": 1937,
      "⁰": 1938,
      "⁵": 1939,
      "⁷": 1940,
      "⁸": 1941,
      "⁹": 1942,
      "⁻": 1943,
      "ⁿ": 1944,
      "₀": 1945,
      "₁": 1946,
      "₂": 1947,
      "₃": 1948,
      "₄": 1949,
      "₈": 1950,
      "₋": 1951,
      "₎": 1952,
      "₡": 1953,
      "₩": 1954,
      "₪": 1955,
      "€": 1956,
      "₱": 1957,
      "₵": 1958,
      "₹": 1959,
      "₽": 1960,
      "₿": 1961,
      "⃝": 1962,
      "⃣": 1963,
      "℃": 1964,
      "℅": 1965,
      "ℓ": 1966,
      "№": 1967,
      "ℚ": 1968,
      "™": 1969,
      "⅓": 1970,
      "⅛": 1971,
      "⅝": 1972,
      "⅞": 1973,
      "Ⅵ": 1974,
      "←": 1975,
      "↑": 1976,
      "→": 1977,
      "↓": 1978,
      "↔": 1979,
      "↕": 1980,
      "↖": 1981,
      "↗": 1982,
      "↘": 1983,
      "↙": 1984,
      "↠": 1985,
      "↣": 1986,
      "↩": 1987,
      "↪": 1988,
      "↬": 1989,
      "↳": 1990,
      "↴": 1991,
      "↵": 1992,
      "↻": 1993,
      "⇄": 1994,
      "⇆": 1995,
      "⇐": 1996,
      "⇒": 1997,
      "⇓": 1998,
      "⇔": 1999,
      "⇛": 2000,
      "⇧": 2001,
      "⇨": 2002,
      "⇰": 2003,
      "∀": 2004,
      "∂": 2005,
      "∅": 2006,
      "∆": 2007,
      "∇": 2008,
      "∈": 2009,
      "∉": 2010,
      "∏": 2011,
      "−": 2012,
      "∕": 2013,
      "∗": 2014,
      "∘": 2015,
      "∙": 2016,
      "√": 2017,
      "∝": 2018,
      "∞": 2019,
      "∠": 2020,
      "∩": 2021,
      "∫": 2022,
      "∮": 2023,
      "∴": 2024,
      "∶": 2025,
      "∼": 2026,
      "≈": 2027,
      "≠": 2028,
      "≡": 2029,
      "≤": 2030,
      "≥": 2031,
      "≦": 2032,
      "≧": 2033,
      "≫": 2034,
      "⊂": 2035,
      "⊃": 2036,
      "⊖": 2037,
      "⊗": 2038,
      "⊙": 2039,
      "⋅": 2040,
      "⋆": 2041,
      "⋈": 2042,
      "⋙": 2043,
      "⋮": 2044,
      "⋲": 2045,
      "⌊": 2046,
      "⌋": 2047,
      "⌒": 2048,
      "⌘": 2049,
      "⌥": 2050,
      "⍆": 2051,
      "⍐": 2052,
      "⍟": 2053,
      "⎈": 2054,
      "⎯": 2055,
      "⎼": 2056,
      "⏏": 2057,
      "⏩": 2058,
      "⏪": 2059,
      "⏫": 2060,
      "⏬": 2061,
      "⏭": 2062,
      "⏯": 2063,
      "⏰": 2064,
      "⏲": 2065,
      "⏳": 2066,
      "⏺": 2067,
      "␣": 2068,
      "⑇": 2069,
      "①": 2070,
      "②": 2071,
      "③": 2072,
      "④": 2073,
      "⑥": 2074,
      "⑧": 2075,
      "⑨": 2076,
      "⓵": 2077,
      "⓶": 2078,
      "⓷": 2079,
      "⓺": 2080,
      "⓻": 2081,
      "⓽": 2082,
      "─": 2083,
      "│": 2084,
      "┌": 2085,
      "└": 2086,
      "┘": 2087,
      "├": 2088,
      "┬": 2089,
      "┼": 2090,
      "║": 2091,
      "╖": 2092,
      "╘": 2093,
      "╯": 2094,
      "╰": 2095,
      "▀": 2096,
      "▁": 2097,
      "█": 2098,
      "▍": 2099,
      "░": 2100,
      "▒": 2101,
      "■": 2102,
      "□": 2103,
      "▢": 2104,
      "▦": 2105,
      "▪": 2106,
      "▲": 2107,
      "△": 2108,
      "▶": 2109,
      "▷": 2110,
      "▸": 2111,
      "►": 2112,
      "▼": 2113,
      "▽": 2114,
      "◀": 2115,
      "◄": 2116,
      "◆": 2117,
      "◇": 2118,
      "◉": 2119,
      "◊": 2120,
      "○": 2121,
      "◌": 2122,
      "◎": 2123,
      "●": 2124,
      "◗": 2125,
      "◘": 2126,
      "◙": 2127,
      "◠": 2128,
      "◢": 2129,
      "◦": 2130,
      "◩": 2131,
      "◪": 2132,
      "◼": 2133,
      "◽": 2134,
      "◾": 2135,
      "☀": 2136,
      "★": 2137,
      "☆": 2138,
      "☌": 2139,
      "☎": 2140,
      "☑": 2141,
      "☭": 2142,
      "☺": 2143,
      "☼": 2144,
      "♀": 2145,
      "♂": 2146,
      "♌": 2147,
      "♒": 2148,
      "♠": 2149,
      "♢": 2150,
      "♣": 2151,
      "♥": 2152,
      "♦": 2153,
      "♩": 2154,
      "♪": 2155,
      "♫": 2156,
      "♭": 2157,
      "♮": 2158,
      "♯": 2159,
      "⚡": 2160,
      "✅": 2161,
      "✉": 2162,
      "✊": 2163,
      "✋": 2164,
      "✌": 2165,
      "✍": 2166,
      "✏": 2167,
      "✓": 2168,
      "✔": 2169,
      "✕": 2170,
      "✤": 2171,
      "❂": 2172,
      "❆": 2173,
      "❌": 2174,
      "❏": 2175,
      "❑": 2176,
      "❒": 2177,
      "❘": 2178,
      "❝": 2179,
      "❞": 2180,
      "❣": 2181,
      "❤": 2182,
      "❯": 2183,
      "❰": 2184,
      "❲": 2185,
      "❳": 2186,
      "❶": 2187,
      "❷": 2188,
      "❸": 2189,
      "❹": 2190,
      "❺": 2191,
      "➊": 2192,
      "➡": 2193,
      "➢": 2194,
      "➤": 2195,
      "➲": 2196,
      "➵": 2197,
      "➶": 2198,
      "➺": 2199,
      "⟲": 2200,
      "⟳": 2201,
      "⟵": 2202,
      "⟶": 2203,
      "⟷": 2204,
      "⟹": 2205,
      "⠀": 2206,
      "⠒": 2207,
      "⠿": 2208,
      "⤓": 2209,
      "⤵": 2210,
      "⦁": 2211,
      "⦿": 2212,
      "⧭": 2213,
      "⧼": 2214,
      "⧽": 2215,
      "⫼": 2216,
      "⬅": 2217,
      "⬇": 2218,
      "⬛": 2219,
      "⬜": 2220,
      "⬤": 2221,
      "⭆": 2222,
      "⭐": 2223,
      "⭕": 2224,
      "⮚": 2225,
      "⮞": 2226,
      "ⲁ": 2227,
      "ⲏ": 2228,
      "ⲓ": 2229,
      "ⲕ": 2230,
      "ⲟ": 2231,
      "ⲣ": 2232,
      "ⲫ": 2233,
      "ⲱ": 2234,
      "⸰": 2235,
      "　": 2236,
      "、": 2237,
      "。": 2238,
      "〃": 2239,
      "〄": 2240,
      "々": 2241,
      "〇": 2242,
      "〈": 2243,
      "〉": 2244,
      "《": 2245,
      "》": 2246,
      "「": 2247,
      "」": 2248,
      "『": 2249,
      "』": 2250,
      "【": 2251,
      "】": 2252,
      "〒": 2253,
      "〓": 2254,
      "〜": 2255,
      "〞": 2256,
      "〰": 2257,
      "〽": 2258,
      "ぁ": 2259,
      "あ": 2260,
      "い": 2261,
      "ぅ": 2262,
      "う": 2263,
      "ぇ": 2264,
      "え": 2265,
      "ぉ": 2266,
      "お": 2267,
      "か": 2268,
      "が": 2269,
      "き": 2270,
      "ぎ": 2271,
      "く": 2272,
      "ぐ": 2273,
      "け": 2274,
      "げ": 2275,
      "こ": 2276,
      "ご": 2277,
      "さ": 2278,
      "ざ": 2279,
      "し": 2280,
      "じ": 2281,
      "す": 2282,
      "ず": 2283,
      "せ": 2284,
      "ぜ": 2285,
      "そ": 2286,
      "ぞ": 2287,
      "た": 2288,
      "だ": 2289,
      "ち": 2290,
      "ぢ": 2291,
      "っ": 2292,
      "つ": 2293,
      "づ": 2294,
      "て": 2295,
      "で": 2296,
      "と": 2297,
      "ど": 2298,
      "な": 2299,
      "に": 2300,
      "ね": 2301,
      "の": 2302,
      "は": 2303,
      "ば": 2304,
      "ぱ": 2305,
      "ひ": 2306,
      "び": 2307,
      "ぴ": 2308,
      "ふ": 2309,
      "ぶ": 2310,
      "ぷ": 2311,
      "へ": 2312,
      "べ": 2313,
      "ほ": 2314,
      "ぼ": 2315,
      "ま": 2316,
      "み": 2317,
      "む": 2318,
      "め": 2319,
      "も": 2320,
      "ゃ": 2321,
      "や": 2322,
      "ゅ": 2323,
      "ゆ": 2324,
      "ょ": 2325,
      "よ": 2326,
      "ら": 2327,
      "り": 2328,
      "る": 2329,
      "れ": 2330,
      "ろ": 2331,
      "わ": 2332,
      "を": 2333,
      "ん": 2334,
      "ゝ": 2335,
      "ァ": 2336,
      "ア": 2337,
      "ィ": 2338,
      "イ": 2339,
      "ウ": 2340,
      "ェ": 2341,
      "エ": 2342,
      "ォ": 2343,
      "オ": 2344,
      "カ": 2345,
      "ガ": 2346,
      "キ": 2347,
      "ク": 2348,
      "グ": 2349,
      "ケ": 2350,
      "ゲ": 2351,
      "コ": 2352,
      "ゴ": 2353,
      "サ": 2354,
      "ザ": 2355,
      "シ": 2356,
      "ジ": 2357,
      "ス": 2358,
      "ズ": 2359,
      "セ": 2360,
      "ゼ": 2361,
      "ソ": 2362,
      "タ": 2363,
      "ダ": 2364,
      "チ": 2365,
      "ッ": 2366,
      "ツ": 2367,
      "テ": 2368,
      "デ": 2369,
      "ト": 2370,
      "ド": 2371,
      "ナ": 2372,
      "ニ": 2373,
      "ヌ": 2374,
      "ネ": 2375,
      "ノ": 2376,
      "ハ": 2377,
      "バ": 2378,
      "パ": 2379,
      "ヒ": 2380,
      "ビ": 2381,
      "ピ": 2382,
      "フ": 2383,
      "ブ": 2384,
      "プ": 2385,
      "ヘ": 2386,
      "ペ": 2387,
      "ホ": 2388,
      "ボ": 2389,
      "ポ": 2390,
      "マ": 2391,
      "ミ": 2392,
      "ム": 2393,
      "メ": 2394,
      "モ": 2395,
      "ャ": 2396,
      "ヤ": 2397,
      "ュ": 2398,
      "ユ": 2399,
      "ョ": 2400,
      "ラ": 2401,
      "リ": 2402,
      "ル": 2403,
      "レ": 2404,
      "ロ": 2405,
      "ワ": 2406,
      "ン": 2407,
      "ヴ": 2408,
      "ヶ": 2409,
      "・": 2410,
      "ー": 2411,
      "ㄫ": 2412,
      "㎡": 2413,
      "㕍": 2414,
      "㸍": 2415,
      "一": 2416,
      "七": 2417,
      "万": 2418,
      "三": 2419,
      "上": 2420,
      "下": 2421,
      "不": 2422,
      "与": 2423,
      "专": 2424,
      "世": 2425,
      "业": 2426,
      "东": 2427,
      "丢": 2428,
      "两": 2429,
      "丨": 2430,
      "个": 2431,
      "中": 2432,
      "串": 2433,
      "临": 2434,
      "丸": 2435,
      "丹": 2436,
      "主": 2437,
      "么": 2438,
      "义": 2439,
      "之": 2440,
      "乐": 2441,
      "乘": 2442,
      "乙": 2443,
      "九": 2444,
      "乞": 2445,
      "也": 2446,
      "习": 2447,
      "书": 2448,
      "乳": 2449,
      "了": 2450,
      "予": 2451,
      "事": 2452,
      "二": 2453,
      "云": 2454,
      "互": 2455,
      "五": 2456,
      "井": 2457,
      "亞": 2458,
      "交": 2459,
      "享": 2460,
      "京": 2461,
      "亭": 2462,
      "亮": 2463,
      "人": 2464,
      "什": 2465,
      "仁": 2466,
      "今": 2467,
      "介": 2468,
      "仕": 2469,
      "他": 2470,
      "付": 2471,
      "代": 2472,
      "令": 2473,
      "以": 2474,
      "们": 2475,
      "件": 2476,
      "份": 2477,
      "企": 2478,
      "伍": 2479,
      "休": 2480,
      "会": 2481,
      "伝": 2482,
      "传": 2483,
      "伯": 2484,
      "位": 2485,
      "住": 2486,
      "体": 2487,
      "何": 2488,
      "作": 2489,
      "佟": 2490,
      "你": 2491,
      "佳": 2492,
      "使": 2493,
      "例": 2494,
      "侍": 2495,
      "供": 2496,
      "価": 2497,
      "便": 2498,
      "俄": 2499,
      "俊": 2500,
      "保": 2501,
      "信": 2502,
      "修": 2503,
      "俺": 2504,
      "個": 2505,
      "倍": 2506,
      "倒": 2507,
      "候": 2508,
      "借": 2509,
      "倫": 2510,
      "假": 2511,
      "健": 2512,
      "偶": 2513,
      "偽": 2514,
      "傑": 2515,
      "傘": 2516,
      "備": 2517,
      "傳": 2518,
      "傷": 2519,
      "働": 2520,
      "像": 2521,
      "僕": 2522,
      "儀": 2523,
      "億": 2524,
      "優": 2525,
      "元": 2526,
      "充": 2527,
      "先": 2528,
      "光": 2529,
      "克": 2530,
      "免": 2531,
      "兎": 2532,
      "兒": 2533,
      "入": 2534,
      "內": 2535,
      "全": 2536,
      "兩": 2537,
      "八": 2538,
      "公": 2539,
      "六": 2540,
      "共": 2541,
      "兴": 2542,
      "兵": 2543,
      "其": 2544,
      "具": 2545,
      "典": 2546,
      "内": 2547,
      "円": 2548,
      "再": 2549,
      "冒": 2550,
      "冕": 2551,
      "军": 2552,
      "冬": 2553,
      "冰": 2554,
      "准": 2555,
      "凌": 2556,
      "処": 2557,
      "凶": 2558,
      "出": 2559,
      "刀": 2560,
      "分": 2561,
      "切": 2562,
      "列": 2563,
      "初": 2564,
      "別": 2565,
      "刨": 2566,
      "利": 2567,
      "别": 2568,
      "制": 2569,
      "券": 2570,
      "刺": 2571,
      "則": 2572,
      "削": 2573,
      "前": 2574,
      "剑": 2575,
      "副": 2576,
      "割": 2577,
      "創": 2578,
      "劉": 2579,
      "力": 2580,
      "功": 2581,
      "加": 2582,
      "务": 2583,
      "动": 2584,
      "助": 2585,
      "劳": 2586,
      "労": 2587,
      "効": 2588,
      "勇": 2589,
      "動": 2590,
      "務": 2591,
      "勝": 2592,
      "募": 2593,
      "勤": 2594,
      "包": 2595,
      "化": 2596,
      "北": 2597,
      "匸": 2598,
      "匹": 2599,
      "区": 2600,
      "医": 2601,
      "匿": 2602,
      "區": 2603,
      "十": 2604,
      "千": 2605,
      "半": 2606,
      "卍": 2607,
      "协": 2608,
      "卐": 2609,
      "卒": 2610,
      "卓": 2611,
      "協": 2612,
      "单": 2613,
      "南": 2614,
      "単": 2615,
      "卢": 2616,
      "印": 2617,
      "危": 2618,
      "压": 2619,
      "厚": 2620,
      "原": 2621,
      "去": 2622,
      "参": 2623,
      "及": 2624,
      "友": 2625,
      "双": 2626,
      "反": 2627,
      "収": 2628,
      "发": 2629,
      "叔": 2630,
      "取": 2631,
      "受": 2632,
      "变": 2633,
      "口": 2634,
      "古": 2635,
      "句": 2636,
      "只": 2637,
      "叫": 2638,
      "可": 2639,
      "台": 2640,
      "右": 2641,
      "号": 2642,
      "司": 2643,
      "合": 2644,
      "吉": 2645,
      "同": 2646,
      "名": 2647,
      "后": 2648,
      "吐": 2649,
      "向": 2650,
      "吗": 2651,
      "君": 2652,
      "吞": 2653,
      "否": 2654,
      "吧": 2655,
      "听": 2656,
      "吸": 2657,
      "吹": 2658,
      "呂": 2659,
      "告": 2660,
      "员": 2661,
      "周": 2662,
      "呼": 2663,
      "命": 2664,
      "和": 2665,
      "品": 2666,
      "員": 2667,
      "哥": 2668,
      "哪": 2669,
      "哲": 2670,
      "唐": 2671,
      "商": 2672,
      "問": 2673,
      "啶": 2674,
      "喀": 2675,
      "善": 2676,
      "喜": 2677,
      "営": 2678,
      "嗎": 2679,
      "嘅": 2680,
      "器": 2681,
      "四": 2682,
      "回": 2683,
      "团": 2684,
      "団": 2685,
      "図": 2686,
      "固": 2687,
      "国": 2688,
      "图": 2689,
      "圆": 2690,
      "國": 2691,
      "園": 2692,
      "圓": 2693,
      "圖": 2694,
      "土": 2695,
      "圣": 2696,
      "在": 2697,
      "地": 2698,
      "圳": 2699,
      "圷": 2700,
      "场": 2701,
      "坂": 2702,
      "坊": 2703,
      "坤": 2704,
      "型": 2705,
      "城": 2706,
      "域": 2707,
      "基": 2708,
      "埼": 2709,
      "堀": 2710,
      "堂": 2711,
      "報": 2712,
      "場": 2713,
      "塔": 2714,
      "塚": 2715,
      "塩": 2716,
      "墓": 2717,
      "増": 2718,
      "壓": 2719,
      "士": 2720,
      "声": 2721,
      "売": 2722,
      "处": 2723,
      "备": 2724,
      "変": 2725,
      "夏": 2726,
      "外": 2727,
      "多": 2728,
      "夜": 2729,
      "大": 2730,
      "天": 2731,
      "太": 2732,
      "夫": 2733,
      "央": 2734,
      "头": 2735,
      "奇": 2736,
      "奎": 2737,
      "奖": 2738,
      "奧": 2739,
      "奪": 2740,
      "女": 2741,
      "她": 2742,
      "好": 2743,
      "妇": 2744,
      "妒": 2745,
      "妻": 2746,
      "始": 2747,
      "姐": 2748,
      "委": 2749,
      "姚": 2750,
      "姜": 2751,
      "姨": 2752,
      "姫": 2753,
      "娅": 2754,
      "婆": 2755,
      "婚": 2756,
      "婦": 2757,
      "婶": 2758,
      "嫁": 2759,
      "嫌": 2760,
      "嬰": 2761,
      "子": 2762,
      "字": 2763,
      "孝": 2764,
      "季": 2765,
      "学": 2766,
      "學": 2767,
      "宀": 2768,
      "它": 2769,
      "宅": 2770,
      "守": 2771,
      "安": 2772,
      "宋": 2773,
      "宗": 2774,
      "官": 2775,
      "定": 2776,
      "宜": 2777,
      "実": 2778,
      "客": 2779,
      "室": 2780,
      "宮": 2781,
      "害": 2782,
      "家": 2783,
      "容": 2784,
      "宽": 2785,
      "宿": 2786,
      "寅": 2787,
      "密": 2788,
      "富": 2789,
      "寒": 2790,
      "寝": 2791,
      "察": 2792,
      "寧": 2793,
      "寨": 2794,
      "寫": 2795,
      "对": 2796,
      "寺": 2797,
      "対": 2798,
      "寿": 2799,
      "封": 2800,
      "射": 2801,
      "将": 2802,
      "將": 2803,
      "對": 2804,
      "小": 2805,
      "少": 2806,
      "尔": 2807,
      "尚": 2808,
      "就": 2809,
      "尻": 2810,
      "尼": 2811,
      "尾": 2812,
      "居": 2813,
      "屋": 2814,
      "展": 2815,
      "属": 2816,
      "層": 2817,
      "履": 2818,
      "山": 2819,
      "岁": 2820,
      "岚": 2821,
      "岡": 2822,
      "岩": 2823,
      "岳": 2824,
      "峰": 2825,
      "島": 2826,
      "崎": 2827,
      "嵐": 2828,
      "嵩": 2829,
      "嶺": 2830,
      "川": 2831,
      "州": 2832,
      "巣": 2833,
      "工": 2834,
      "左": 2835,
      "巨": 2836,
      "己": 2837,
      "已": 2838,
      "巴": 2839,
      "巻": 2840,
      "市": 2841,
      "布": 2842,
      "希": 2843,
      "帕": 2844,
      "帝": 2845,
      "带": 2846,
      "師": 2847,
      "帰": 2848,
      "幅": 2849,
      "幌": 2850,
      "干": 2851,
      "平": 2852,
      "年": 2853,
      "广": 2854,
      "庆": 2855,
      "床": 2856,
      "序": 2857,
      "应": 2858,
      "底": 2859,
      "店": 2860,
      "府": 2861,
      "废": 2862,
      "度": 2863,
      "座": 2864,
      "庭": 2865,
      "康": 2866,
      "廳": 2867,
      "开": 2868,
      "弁": 2869,
      "式": 2870,
      "弔": 2871,
      "引": 2872,
      "弘": 2873,
      "弥": 2874,
      "弦": 2875,
      "張": 2876,
      "強": 2877,
      "弹": 2878,
      "强": 2879,
      "归": 2880,
      "当": 2881,
      "形": 2882,
      "彩": 2883,
      "影": 2884,
      "彼": 2885,
      "征": 2886,
      "径": 2887,
      "待": 2888,
      "很": 2889,
      "後": 2890,
      "徒": 2891,
      "得": 2892,
      "御": 2893,
      "徴": 2894,
      "德": 2895,
      "徹": 2896,
      "心": 2897,
      "必": 2898,
      "忌": 2899,
      "志": 2900,
      "忘": 2901,
      "忙": 2902,
      "応": 2903,
      "快": 2904,
      "念": 2905,
      "怕": 2906,
      "思": 2907,
      "急": 2908,
      "性": 2909,
      "总": 2910,
      "恋": 2911,
      "恍": 2912,
      "恩": 2913,
      "息": 2914,
      "恵": 2915,
      "悟": 2916,
      "悠": 2917,
      "您": 2918,
      "悩": 2919,
      "情": 2920,
      "惑": 2921,
      "惠": 2922,
      "想": 2923,
      "愉": 2924,
      "意": 2925,
      "愛": 2926,
      "感": 2927,
      "態": 2928,
      "憎": 2929,
      "憲": 2930,
      "懷": 2931,
      "成": 2932,
      "我": 2933,
      "或": 2934,
      "戦": 2935,
      "戰": 2936,
      "戸": 2937,
      "戻": 2938,
      "房": 2939,
      "所": 2940,
      "手": 2941,
      "才": 2942,
      "打": 2943,
      "払": 2944,
      "扫": 2945,
      "扶": 2946,
      "承": 2947,
      "技": 2948,
      "抑": 2949,
      "投": 2950,
      "抖": 2951,
      "抗": 2952,
      "折": 2953,
      "护": 2954,
      "抱": 2955,
      "拉": 2956,
      "拓": 2957,
      "择": 2958,
      "拳": 2959,
      "拶": 2960,
      "持": 2961,
      "指": 2962,
      "挙": 2963,
      "挟": 2964,
      "挨": 2965,
      "挾": 2966,
      "捆": 2967,
      "排": 2968,
      "採": 2969,
      "探": 2970,
      "接": 2971,
      "控": 2972,
      "推": 2973,
      "描": 2974,
      "提": 2975,
      "換": 2976,
      "援": 2977,
      "摩": 2978,
      "播": 2979,
      "操": 2980,
      "支": 2981,
      "改": 2982,
      "放": 2983,
      "政": 2984,
      "故": 2985,
      "教": 2986,
      "敦": 2987,
      "数": 2988,
      "整": 2989,
      "敵": 2990,
      "數": 2991,
      "文": 2992,
      "斗": 2993,
      "料": 2994,
      "断": 2995,
      "斯": 2996,
      "新": 2997,
      "方": 2998,
      "旅": 2999,
      "族": 3000,
      "旗": 3001,
      "无": 3002,
      "日": 3003,
      "旦": 3004,
      "早": 3005,
      "时": 3006,
      "昂": 3007,
      "昇": 3008,
      "昌": 3009,
      "明": 3010,
      "易": 3011,
      "昔": 3012,
      "星": 3013,
      "映": 3014,
      "春": 3015,
      "昨": 3016,
      "是": 3017,
      "昼": 3018,
      "時": 3019,
      "晚": 3020,
      "晩": 3021,
      "普": 3022,
      "晴": 3023,
      "智": 3024,
      "暂": 3025,
      "暑": 3026,
      "暖": 3027,
      "曜": 3028,
      "曲": 3029,
      "更": 3030,
      "書": 3031,
      "曹": 3032,
      "最": 3033,
      "會": 3034,
      "月": 3035,
      "有": 3036,
      "服": 3037,
      "望": 3038,
      "朝": 3039,
      "期": 3040,
      "未": 3041,
      "末": 3042,
      "本": 3043,
      "札": 3044,
      "术": 3045,
      "朴": 3046,
      "机": 3047,
      "权": 3048,
      "杆": 3049,
      "李": 3050,
      "杏": 3051,
      "材": 3052,
      "村": 3053,
      "条": 3054,
      "来": 3055,
      "東": 3056,
      "松": 3057,
      "板": 3058,
      "构": 3059,
      "林": 3060,
      "果": 3061,
      "架": 3062,
      "柏": 3063,
      "染": 3064,
      "查": 3065,
      "标": 3066,
      "树": 3067,
      "栗": 3068,
      "校": 3069,
      "株": 3070,
      "根": 3071,
      "格": 3072,
      "桃": 3073,
      "桜": 3074,
      "桥": 3075,
      "梅": 3076,
      "梟": 3077,
      "棋": 3078,
      "森": 3079,
      "植": 3080,
      "楠": 3081,
      "業": 3082,
      "楽": 3083,
      "構": 3084,
      "様": 3085,
      "樂": 3086,
      "標": 3087,
      "模": 3088,
      "横": 3089,
      "樱": 3090,
      "樹": 3091,
      "橋": 3092,
      "橘": 3093,
      "機": 3094,
      "次": 3095,
      "欲": 3096,
      "款": 3097,
      "歇": 3098,
      "歉": 3099,
      "歌": 3100,
      "歐": 3101,
      "止": 3102,
      "正": 3103,
      "此": 3104,
      "武": 3105,
      "歩": 3106,
      "歯": 3107,
      "歴": 3108,
      "死": 3109,
      "残": 3110,
      "段": 3111,
      "毋": 3112,
      "母": 3113,
      "毎": 3114,
      "比": 3115,
      "毘": 3116,
      "毛": 3117,
      "民": 3118,
      "气": 3119,
      "気": 3120,
      "氣": 3121,
      "水": 3122,
      "永": 3123,
      "求": 3124,
      "汉": 3125,
      "汗": 3126,
      "江": 3127,
      "污": 3128,
      "汤": 3129,
      "決": 3130,
      "沒": 3131,
      "沖": 3132,
      "沙": 3133,
      "没": 3134,
      "沪": 3135,
      "河": 3136,
      "油": 3137,
      "治": 3138,
      "沼": 3139,
      "泄": 3140,
      "泉": 3141,
      "泊": 3142,
      "法": 3143,
      "波": 3144,
      "泣": 3145,
      "注": 3146,
      "泰": 3147,
      "泳": 3148,
      "泽": 3149,
      "洋": 3150,
      "洗": 3151,
      "洛": 3152,
      "津": 3153,
      "洪": 3154,
      "洲": 3155,
      "活": 3156,
      "派": 3157,
      "流": 3158,
      "浄": 3159,
      "测": 3160,
      "浜": 3161,
      "海": 3162,
      "液": 3163,
      "淘": 3164,
      "深": 3165,
      "清": 3166,
      "済": 3167,
      "渋": 3168,
      "渓": 3169,
      "渗": 3170,
      "渝": 3171,
      "港": 3172,
      "游": 3173,
      "湯": 3174,
      "湾": 3175,
      "満": 3176,
      "源": 3177,
      "準": 3178,
      "滋": 3179,
      "滝": 3180,
      "滞": 3181,
      "满": 3182,
      "滤": 3183,
      "漂": 3184,
      "漏": 3185,
      "漢": 3186,
      "漫": 3187,
      "潔": 3188,
      "潤": 3189,
      "澳": 3190,
      "灣": 3191,
      "火": 3192,
      "灯": 3193,
      "灰": 3194,
      "灵": 3195,
      "炎": 3196,
      "点": 3197,
      "為": 3198,
      "热": 3199,
      "無": 3200,
      "然": 3201,
      "焼": 3202,
      "煌": 3203,
      "煙": 3204,
      "照": 3205,
      "熱": 3206,
      "燃": 3207,
      "營": 3208,
      "爆": 3209,
      "爐": 3210,
      "爪": 3211,
      "爭": 3212,
      "爱": 3213,
      "爲": 3214,
      "父": 3215,
      "爸": 3216,
      "爹": 3217,
      "片": 3218,
      "版": 3219,
      "牌": 3220,
      "牙": 3221,
      "牛": 3222,
      "牧": 3223,
      "物": 3224,
      "特": 3225,
      "犬": 3226,
      "狀": 3227,
      "狂": 3228,
      "狙": 3229,
      "狼": 3230,
      "猛": 3231,
      "猫": 3232,
      "猿": 3233,
      "獄": 3234,
      "獅": 3235,
      "獎": 3236,
      "率": 3237,
      "玉": 3238,
      "王": 3239,
      "珠": 3240,
      "班": 3241,
      "現": 3242,
      "球": 3243,
      "理": 3244,
      "琪": 3245,
      "瓜": 3246,
      "生": 3247,
      "産": 3248,
      "用": 3249,
      "田": 3250,
      "由": 3251,
      "甲": 3252,
      "申": 3253,
      "电": 3254,
      "男": 3255,
      "町": 3256,
      "画": 3257,
      "界": 3258,
      "留": 3259,
      "畜": 3260,
      "畢": 3261,
      "番": 3262,
      "疑": 3263,
      "疲": 3264,
      "病": 3265,
      "痛": 3266,
      "痩": 3267,
      "療": 3268,
      "癌": 3269,
      "発": 3270,
      "登": 3271,
      "發": 3272,
      "白": 3273,
      "百": 3274,
      "皂": 3275,
      "的": 3276,
      "皇": 3277,
      "盆": 3278,
      "盈": 3279,
      "盒": 3280,
      "盛": 3281,
      "目": 3282,
      "直": 3283,
      "相": 3284,
      "省": 3285,
      "看": 3286,
      "県": 3287,
      "真": 3288,
      "眠": 3289,
      "眾": 3290,
      "着": 3291,
      "睡": 3292,
      "矢": 3293,
      "知": 3294,
      "短": 3295,
      "石": 3296,
      "码": 3297,
      "砂": 3298,
      "研": 3299,
      "破": 3300,
      "确": 3301,
      "碑": 3302,
      "碰": 3303,
      "確": 3304,
      "礙": 3305,
      "礼": 3306,
      "社": 3307,
      "祖": 3308,
      "祝": 3309,
      "神": 3310,
      "票": 3311,
      "祭": 3312,
      "禁": 3313,
      "福": 3314,
      "禾": 3315,
      "私": 3316,
      "秋": 3317,
      "科": 3318,
      "秒": 3319,
      "秘": 3320,
      "租": 3321,
      "秦": 3322,
      "称": 3323,
      "移": 3324,
      "程": 3325,
      "税": 3326,
      "稿": 3327,
      "穴": 3328,
      "究": 3329,
      "空": 3330,
      "窓": 3331,
      "窗": 3332,
      "立": 3333,
      "竜": 3334,
      "章": 3335,
      "童": 3336,
      "端": 3337,
      "竹": 3338,
      "竺": 3339,
      "笑": 3340,
      "笛": 3341,
      "第": 3342,
      "等": 3343,
      "筒": 3344,
      "箭": 3345,
      "節": 3346,
      "簡": 3347,
      "籤": 3348,
      "米": 3349,
      "粟": 3350,
      "精": 3351,
      "糗": 3352,
      "系": 3353,
      "紀": 3354,
      "紂": 3355,
      "約": 3356,
      "紅": 3357,
      "級": 3358,
      "素": 3359,
      "索": 3360,
      "細": 3361,
      "紹": 3362,
      "終": 3363,
      "組": 3364,
      "経": 3365,
      "給": 3366,
      "統": 3367,
      "絵": 3368,
      "絶": 3369,
      "經": 3370,
      "続": 3371,
      "綠": 3372,
      "綣": 3373,
      "網": 3374,
      "緊": 3375,
      "総": 3376,
      "緑": 3377,
      "緒": 3378,
      "線": 3379,
      "編": 3380,
      "練": 3381,
      "縁": 3382,
      "縞": 3383,
      "繼": 3384,
      "繾": 3385,
      "續": 3386,
      "红": 3387,
      "约": 3388,
      "纪": 3389,
      "纱": 3390,
      "组": 3391,
      "终": 3392,
      "经": 3393,
      "结": 3394,
      "给": 3395,
      "络": 3396,
      "统": 3397,
      "继": 3398,
      "维": 3399,
      "网": 3400,
      "罩": 3401,
      "置": 3402,
      "羊": 3403,
      "美": 3404,
      "群": 3405,
      "義": 3406,
      "羽": 3407,
      "翁": 3408,
      "習": 3409,
      "翔": 3410,
      "翻": 3411,
      "老": 3412,
      "考": 3413,
      "者": 3414,
      "耐": 3415,
      "耶": 3416,
      "联": 3417,
      "聖": 3418,
      "聞": 3419,
      "聯": 3420,
      "職": 3421,
      "股": 3422,
      "肥": 3423,
      "肯": 3424,
      "育": 3425,
      "背": 3426,
      "胡": 3427,
      "能": 3428,
      "脅": 3429,
      "脊": 3430,
      "脚": 3431,
      "脸": 3432,
      "腐": 3433,
      "腔": 3434,
      "自": 3435,
      "至": 3436,
      "臺": 3437,
      "興": 3438,
      "舉": 3439,
      "舞": 3440,
      "航": 3441,
      "般": 3442,
      "船": 3443,
      "艦": 3444,
      "良": 3445,
      "色": 3446,
      "艺": 3447,
      "节": 3448,
      "芈": 3449,
      "芝": 3450,
      "花": 3451,
      "苒": 3452,
      "苗": 3453,
      "若": 3454,
      "英": 3455,
      "范": 3456,
      "茄": 3457,
      "草": 3458,
      "荏": 3459,
      "荒": 3460,
      "药": 3461,
      "荷": 3462,
      "莉": 3463,
      "莏": 3464,
      "菊": 3465,
      "菌": 3466,
      "華": 3467,
      "萌": 3468,
      "营": 3469,
      "萨": 3470,
      "萬": 3471,
      "落": 3472,
      "葉": 3473,
      "蓝": 3474,
      "蓮": 3475,
      "蔡": 3476,
      "蕃": 3477,
      "薬": 3478,
      "藏": 3479,
      "蘋": 3480,
      "蘭": 3481,
      "虎": 3482,
      "處": 3483,
      "虫": 3484,
      "蛇": 3485,
      "融": 3486,
      "螺": 3487,
      "血": 3488,
      "行": 3489,
      "街": 3490,
      "衣": 3491,
      "表": 3492,
      "袋": 3493,
      "袍": 3494,
      "装": 3495,
      "裔": 3496,
      "裕": 3497,
      "補": 3498,
      "裡": 3499,
      "裸": 3500,
      "製": 3501,
      "複": 3502,
      "西": 3503,
      "要": 3504,
      "見": 3505,
      "視": 3506,
      "観": 3507,
      "见": 3508,
      "观": 3509,
      "规": 3510,
      "视": 3511,
      "解": 3512,
      "言": 3513,
      "計": 3514,
      "訊": 3515,
      "討": 3516,
      "訓": 3517,
      "記": 3518,
      "設": 3519,
      "許": 3520,
      "訳": 3521,
      "証": 3522,
      "詞": 3523,
      "詣": 3524,
      "試": 3525,
      "詩": 3526,
      "話": 3527,
      "詳": 3528,
      "誉": 3529,
      "認": 3530,
      "誕": 3531,
      "語": 3532,
      "說": 3533,
      "説": 3534,
      "読": 3535,
      "誰": 3536,
      "調": 3537,
      "談": 3538,
      "請": 3539,
      "論": 3540,
      "諺": 3541,
      "謊": 3542,
      "講": 3543,
      "謝": 3544,
      "謡": 3545,
      "證": 3546,
      "警": 3547,
      "護": 3548,
      "讀": 3549,
      "认": 3550,
      "记": 3551,
      "设": 3552,
      "证": 3553,
      "识": 3554,
      "词": 3555,
      "译": 3556,
      "试": 3557,
      "诗": 3558,
      "诞": 3559,
      "语": 3560,
      "说": 3561,
      "请": 3562,
      "课": 3563,
      "谢": 3564,
      "谷": 3565,
      "豆": 3566,
      "豊": 3567,
      "豕": 3568,
      "豪": 3569,
      "財": 3570,
      "貧": 3571,
      "販": 3572,
      "貫": 3573,
      "貯": 3574,
      "貴": 3575,
      "買": 3576,
      "費": 3577,
      "賀": 3578,
      "資": 3579,
      "賛": 3580,
      "賣": 3581,
      "贝": 3582,
      "财": 3583,
      "贫": 3584,
      "贴": 3585,
      "贷": 3586,
      "费": 3587,
      "赌": 3588,
      "赤": 3589,
      "走": 3590,
      "起": 3591,
      "超": 3592,
      "趣": 3593,
      "足": 3594,
      "跑": 3595,
      "跟": 3596,
      "跡": 3597,
      "路": 3598,
      "踊": 3599,
      "踏": 3600,
      "蹴": 3601,
      "身": 3602,
      "車": 3603,
      "軌": 3604,
      "軍": 3605,
      "転": 3606,
      "軽": 3607,
      "載": 3608,
      "輕": 3609,
      "輛": 3610,
      "輸": 3611,
      "车": 3612,
      "软": 3613,
      "轴": 3614,
      "载": 3615,
      "辆": 3616,
      "辟": 3617,
      "辭": 3618,
      "込": 3619,
      "达": 3620,
      "迅": 3621,
      "过": 3622,
      "近": 3623,
      "返": 3624,
      "还": 3625,
      "述": 3626,
      "追": 3627,
      "退": 3628,
      "送": 3629,
      "适": 3630,
      "逆": 3631,
      "选": 3632,
      "透": 3633,
      "通": 3634,
      "速": 3635,
      "連": 3636,
      "週": 3637,
      "遅": 3638,
      "運": 3639,
      "過": 3640,
      "道": 3641,
      "達": 3642,
      "違": 3643,
      "遞": 3644,
      "遠": 3645,
      "遭": 3646,
      "選": 3647,
      "遺": 3648,
      "邓": 3649,
      "部": 3650,
      "郵": 3651,
      "郷": 3652,
      "都": 3653,
      "配": 3654,
      "酒": 3655,
      "酔": 3656,
      "酢": 3657,
      "酷": 3658,
      "醒": 3659,
      "醜": 3660,
      "醤": 3661,
      "释": 3662,
      "里": 3663,
      "重": 3664,
      "野": 3665,
      "量": 3666,
      "金": 3667,
      "針": 3668,
      "銀": 3669,
      "錄": 3670,
      "鐘": 3671,
      "鐵": 3672,
      "鑑": 3673,
      "钜": 3674,
      "钟": 3675,
      "铃": 3676,
      "链": 3677,
      "销": 3678,
      "错": 3679,
      "锯": 3680,
      "長": 3681,
      "长": 3682,
      "門": 3683,
      "開": 3684,
      "間": 3685,
      "関": 3686,
      "閱": 3687,
      "闆": 3688,
      "闖": 3689,
      "门": 3690,
      "问": 3691,
      "间": 3692,
      "阀": 3693,
      "阪": 3694,
      "防": 3695,
      "阿": 3696,
      "附": 3697,
      "际": 3698,
      "陈": 3699,
      "限": 3700,
      "院": 3701,
      "除": 3702,
      "险": 3703,
      "陰": 3704,
      "陳": 3705,
      "険": 3706,
      "陽": 3707,
      "隆": 3708,
      "隊": 3709,
      "際": 3710,
      "障": 3711,
      "隠": 3712,
      "隣": 3713,
      "隻": 3714,
      "雅": 3715,
      "集": 3716,
      "雍": 3717,
      "雙": 3718,
      "雛": 3719,
      "難": 3720,
      "雨": 3721,
      "雪": 3722,
      "雲": 3723,
      "雷": 3724,
      "電": 3725,
      "霊": 3726,
      "霜": 3727,
      "露": 3728,
      "青": 3729,
      "非": 3730,
      "面": 3731,
      "韓": 3732,
      "音": 3733,
      "頁": 3734,
      "須": 3735,
      "頑": 3736,
      "頭": 3737,
      "頻": 3738,
      "題": 3739,
      "額": 3740,
      "顔": 3741,
      "願": 3742,
      "類": 3743,
      "页": 3744,
      "预": 3745,
      "频": 3746,
      "風": 3747,
      "风": 3748,
      "食": 3749,
      "飯": 3750,
      "餘": 3751,
      "館": 3752,
      "饭": 3753,
      "首": 3754,
      "香": 3755,
      "馬": 3756,
      "駅": 3757,
      "駝": 3758,
      "駱": 3759,
      "駿": 3760,
      "験": 3761,
      "騰": 3762,
      "騵": 3763,
      "驗": 3764,
      "马": 3765,
      "验": 3766,
      "骨": 3767,
      "骰": 3768,
      "高": 3769,
      "髥": 3770,
      "髪": 3771,
      "髭": 3772,
      "鬆": 3773,
      "魔": 3774,
      "魚": 3775,
      "鮨": 3776,
      "鯉": 3777,
      "鯖": 3778,
      "鱼": 3779,
      "鲁": 3780,
      "鳥": 3781,
      "鴉": 3782,
      "鴨": 3783,
      "鶴": 3784,
      "鸟": 3785,
      "鸭": 3786,
      "鹿": 3787,
      "麒": 3788,
      "麟": 3789,
      "麻": 3790,
      "黃": 3791,
      "黄": 3792,
      "黑": 3793,
      "點": 3794,
      "鼓": 3795,
      "鼠": 3796,
      "齒": 3797,
      "齡": 3798,
      "龍": 3799,
      "ꙁ": 3800,
      "ꜜ": 3801,
      "꞉": 3802,
      "꞊": 3803,
      "꣡": 3804,
      "꣢": 3805,
      "꣣": 3806,
      "꣫": 3807,
      "꣯": 3808,
      "ꣳ": 3809,
      "꧁": 3810,
      "꧂": 3811,
      "ꯎ": 3812,
      "ꯟ": 3813,
      "가": 3814,
      "각": 3815,
      "간": 3816,
      "강": 3817,
      "개": 3818,
      "갸": 3819,
      "거": 3820,
      "건": 3821,
      "검": 3822,
      "것": 3823,
      "게": 3824,
      "결": 3825,
      "경": 3826,
      "계": 3827,
      "고": 3828,
      "곳": 3829,
      "공": 3830,
      "관": 3831,
      "광": 3832,
      "교": 3833,
      "구": 3834,
      "국": 3835,
      "귀": 3836,
      "그": 3837,
      "근": 3838,
      "금": 3839,
      "급": 3840,
      "기": 3841,
      "긴": 3842,
      "길": 3843,
      "김": 3844,
      "꺼": 3845,
      "껌": 3846,
      "꼬": 3847,
      "끝": 3848,
      "나": 3849,
      "날": 3850,
      "남": 3851,
      "내": 3852,
      "너": 3853,
      "네": 3854,
      "녀": 3855,
      "년": 3856,
      "녕": 3857,
      "노": 3858,
      "놀": 3859,
      "누": 3860,
      "뉴": 3861,
      "느": 3862,
      "는": 3863,
      "늘": 3864,
      "니": 3865,
      "님": 3866,
      "다": 3867,
      "닥": 3868,
      "단": 3869,
      "달": 3870,
      "답": 3871,
      "당": 3872,
      "대": 3873,
      "더": 3874,
      "데": 3875,
      "도": 3876,
      "독": 3877,
      "돈": 3878,
      "동": 3879,
      "되": 3880,
      "드": 3881,
      "든": 3882,
      "들": 3883,
      "디": 3884,
      "따": 3885,
      "또": 3886,
      "뜨": 3887,
      "라": 3888,
      "람": 3889,
      "랜": 3890,
      "량": 3891,
      "럭": 3892,
      "런": 3893,
      "럼": 3894,
      "려": 3895,
      "력": 3896,
      "련": 3897,
      "령": 3898,
      "로": 3899,
      "론": 3900,
      "료": 3901,
      "루": 3902,
      "룸": 3903,
      "륜": 3904,
      "르": 3905,
      "름": 3906,
      "리": 3907,
      "림": 3908,
      "마": 3909,
      "만": 3910,
      "맞": 3911,
      "메": 3912,
      "면": 3913,
      "명": 3914,
      "모": 3915,
      "무": 3916,
      "문": 3917,
      "묻": 3918,
      "물": 3919,
      "뮤": 3920,
      "미": 3921,
      "민": 3922,
      "밀": 3923,
      "바": 3924,
      "박": 3925,
      "발": 3926,
      "밥": 3927,
      "방": 3928,
      "배": 3929,
      "백": 3930,
      "버": 3931,
      "번": 3932,
      "법": 3933,
      "베": 3934,
      "별": 3935,
      "병": 3936,
      "보": 3937,
      "복": 3938,
      "본": 3939,
      "봅": 3940,
      "봇": 3941,
      "부": 3942,
      "분": 3943,
      "불": 3944,
      "브": 3945,
      "블": 3946,
      "비": 3947,
      "빅": 3948,
      "빈": 3949,
      "빠": 3950,
      "뻐": 3951,
      "뿜": 3952,
      "사": 3953,
      "산": 3954,
      "살": 3955,
      "삼": 3956,
      "상": 3957,
      "색": 3958,
      "서": 3959,
      "석": 3960,
      "선": 3961,
      "성": 3962,
      "세": 3963,
      "센": 3964,
      "션": 3965,
      "소": 3966,
      "속": 3967,
      "쇠": 3968,
      "수": 3969,
      "쉽": 3970,
      "스": 3971,
      "슬": 3972,
      "시": 3973,
      "식": 3974,
      "신": 3975,
      "실": 3976,
      "심": 3977,
      "십": 3978,
      "써": 3979,
      "쓰": 3980,
      "씨": 3981,
      "아": 3982,
      "악": 3983,
      "안": 3984,
      "않": 3985,
      "압": 3986,
      "았": 3987,
      "앙": 3988,
      "앵": 3989,
      "야": 3990,
      "약": 3991,
      "얌": 3992,
      "양": 3993,
      "어": 3994,
      "언": 3995,
      "얼": 3996,
      "업": 3997,
      "없": 3998,
      "엇": 3999,
      "에": 4000,
      "여": 4001,
      "역": 4002,
      "연": 4003,
      "영": 4004,
      "예": 4005,
      "온": 4006,
      "요": 4007,
      "용": 4008,
      "우": 4009,
      "운": 4010,
      "울": 4011,
      "움": 4012,
      "웃": 4013,
      "웅": 4014,
      "원": 4015,
      "월": 4016,
      "위": 4017,
      "윤": 4018,
      "은": 4019,
      "을": 4020,
      "음": 4021,
      "읏": 4022,
      "의": 4023,
      "이": 4024,
      "인": 4025,
      "일": 4026,
      "읽": 4027,
      "임": 4028,
      "잉": 4029,
      "자": 4030,
      "장": 4031,
      "재": 4032,
      "적": 4033,
      "전": 4034,
      "절": 4035,
      "정": 4036,
      "제": 4037,
      "젠": 4038,
      "종": 4039,
      "주": 4040,
      "중": 4041,
      "즈": 4042,
      "즣": 4043,
      "지": 4044,
      "진": 4045,
      "짱": 4046,
      "쩔": 4047,
      "차": 4048,
      "찰": 4049,
      "창": 4050,
      "책": 4051,
      "챙": 4052,
      "천": 4053,
      "청": 4054,
      "쳐": 4055,
      "총": 4056,
      "축": 4057,
      "출": 4058,
      "충": 4059,
      "취": 4060,
      "츄": 4061,
      "측": 4062,
      "치": 4063,
      "친": 4064,
      "칠": 4065,
      "카": 4066,
      "칼": 4067,
      "캘": 4068,
      "캡": 4069,
      "커": 4070,
      "케": 4071,
      "코": 4072,
      "퀴": 4073,
      "크": 4074,
      "큰": 4075,
      "키": 4076,
      "킴": 4077,
      "킹": 4078,
      "타": 4079,
      "탄": 4080,
      "택": 4081,
      "탱": 4082,
      "터": 4083,
      "텔": 4084,
      "통": 4085,
      "트": 4086,
      "특": 4087,
      "팀": 4088,
      "판": 4089,
      "팔": 4090,
      "팝": 4091,
      "패": 4092,
      "퍼": 4093,
      "평": 4094,
      "폼": 4095,
      "표": 4096,
      "품": 4097,
      "프": 4098,
      "하": 4099,
      "학": 4100,
      "한": 4101,
      "함": 4102,
      "합": 4103,
      "항": 4104,
      "해": 4105,
      "햇": 4106,
      "행": 4107,
      "허": 4108,
      "혁": 4109,
      "현": 4110,
      "협": 4111,
      "혜": 4112,
      "호": 4113,
      "혼": 4114,
      "화": 4115,
      "환": 4116,
      "황": 4117,
      "획": 4118,
      "후": 4119,
      "흐": 4120,
      "히": 4121,
      "힌": 4122,
      "힘": 4123,
      "": 4124,
      "": 4125,
      "": 4126,
      "": 4127,
      "": 4128,
      "": 4129,
      "": 4130,
      "": 4131,
      "": 4132,
      "": 4133,
      "": 4134,
      "": 4135,
      "": 4136,
      "": 4137,
      "": 4138,
      "": 4139,
      "": 4140,
      "": 4141,
      "": 4142,
      "": 4143,
      "": 4144,
      "": 4145,
      "": 4146,
      "": 4147,
      "": 4148,
      "": 4149,
      "": 4150,
      "": 4151,
      "": 4152,
      "": 4153,
      "": 4154,
      "": 4155,
      "": 4156,
      "": 4157,
      "": 4158,
      "": 4159,
      "": 4160,
      "": 4161,
      "": 4162,
      "": 4163,
      "": 4164,
      "": 4165,
      "": 4166,
      "": 4167,
      "": 4168,
      "": 4169,
      "": 4170,
      "": 4171,
      "": 4172,
      "": 4173,
      "": 4174,
      "": 4175,
      "": 4176,
      "": 4177,
      "": 4178,
      "": 4179,
      "": 4180,
      "": 4181,
      "": 4182,
      "": 4183,
      "": 4184,
      "": 4185,
      "": 4186,
      "": 4187,
      "": 4188,
      "": 4189,
      "": 4190,
      "": 4191,
      "": 4192,
      "": 4193,
      "": 4194,
      "": 4195,
      "": 4196,
      "": 4197,
      "ﯽ": 4198,
      "ﯾ": 4199,
      "﴾": 4200,
      "﴿": 4201,
      "ﷲ": 4202,
      "︎": 4203,
      "️": 4204,
      "﹣": 4205,
      "ﹾ": 4206,
      "ﺁ": 4207,
      "ﺃ": 4208,
      "ﺍ": 4209,
      "ﺎ": 4210,
      "ﺑ": 4211,
      "ﺒ": 4212,
      "ﺓ": 4213,
      "ﺔ": 4214,
      "ﺘ": 4215,
      "ﺛ": 4216,
      "ﺟ": 4217,
      "ﺣ": 4218,
      "ﺤ": 4219,
      "ﺨ": 4220,
      "ﺩ": 4221,
      "ﺪ": 4222,
      "ﺮ": 4223,
      "ﺴ": 4224,
      "ﺻ": 4225,
      "ﺼ": 4226,
      "ﺿ": 4227,
      "ﻄ": 4228,
      "ﻋ": 4229,
      "ﻌ": 4230,
      "ﻏ": 4231,
      "ﻐ": 4232,
      "ﻓ": 4233,
      "ﻔ": 4234,
      "ﻘ": 4235,
      "ﻞ": 4236,
      "ﻟ": 4237,
      "ﻠ": 4238,
      "ﻡ": 4239,
      "ﻢ": 4240,
      "ﻣ": 4241,
      "ﻤ": 4242,
      "ﻦ": 4243,
      "ﻧ": 4244,
      "ﻨ": 4245,
      "ﻪ": 4246,
      "ﻫ": 4247,
      "ﻭ": 4248,
      "ﻮ": 4249,
      "ﻰ": 4250,
      "ﻴ": 4251,
      "ﻻ": 4252,
      "ﻼ": 4253,
      "﻿": 4254,
      "！": 4255,
      "％": 4256,
      "＆": 4257,
      "（": 4258,
      "）": 4259,
      "＊": 4260,
      "＋": 4261,
      "，": 4262,
      "．": 4263,
      "２": 4264,
      "３": 4265,
      "４": 4266,
      "：": 4267,
      "＜": 4268,
      "＞": 4269,
      "？": 4270,
      "Ａ": 4271,
      "Ｂ": 4272,
      "Ｃ": 4273,
      "Ｅ": 4274,
      "Ｇ": 4275,
      "Ｈ": 4276,
      "Ｋ": 4277,
      "Ｌ": 4278,
      "Ｍ": 4279,
      "Ｎ": 4280,
      "Ｏ": 4281,
      "Ｒ": 4282,
      "Ｔ": 4283,
      "Ｕ": 4284,
      "Ｗ": 4285,
      "［": 4286,
      "］": 4287,
      "｜": 4288,
      "～": 4289,
      "ｧ": 4290,
      "ｪ": 4291,
      "ｫ": 4292,
      "ﾅ": 4293,
      "ﾧ": 4294,
      "ﾪ": 4295,
      "﾿": 4296,
      "ￆ": 4297,
      "￥": 4298,
      "￦": 4299,
      "￼": 4300,
      "�": 4301,
      "𐌰": 4302,
      "𐌳": 4303,
      "𐌴": 4304,
      "𐌹": 4305,
      "𐌺": 4306,
      "𐌾": 4307,
      "𐍀": 4308,
      "𐍂": 4309,
      "𐍃": 4310,
      "𐍅": 4311,
      "𐍉": 4312,
      "𐎅": 4313,
      "𐎠": 4314,
      "𐎡": 4315,
      "𐎢": 4316,
      "𐎲": 4317,
      "𐎶": 4318,
      "𐎽": 4319,
      "𐔞": 4320,
      "𑀓": 4321,
      "𑀘": 4322,
      "𑀫": 4323,
      "𑀭": 4324,
      "𑀸": 4325,
      "𑀻": 4326,
      "𑀼": 4327,
      "𑂙": 4328,
      "𑂧": 4329,
      "𑂩": 4330,
      "𑂯": 4331,
      "𑂰": 4332,
      "𑂲": 4333,
      "𑂷": 4334,
      "𑆇": 4335,
      "𑐎": 4336,
      "𑐐": 4337,
      "𑐕": 4338,
      "𑐠": 4339,
      "𑐫": 4340,
      "𑐮": 4341,
      "𑐰": 4342,
      "𑐴": 4343,
      "𑐵": 4344,
      "𑑀": 4345,
      "𑑂": 4346,
      "𑑄": 4347,
      "𑑅": 4348,
      "𑫃": 4349,
      "𒆜": 4350,
      "𓃰": 4351,
      "𓊈": 4352,
      "𓊉": 4353,
      "𝄆": 4354,
      "𝅘": 4355,
      "𝅥": 4356,
      "𝅮": 4357,
      "𝐐": 4358,
      "𝑛": 4359,
      "🀄": 4360,
      "🂓": 4361,
      "🃏": 4362,
      "🅠": 4363,
      "🅰": 4364,
      "🅱": 4365,
      "🅾": 4366,
      "🆀": 4367,
      "🆎": 4368,
      "🆓": 4369,
      "🆘": 4370,
      "🇧": 4371,
      "🇬": 4372,
      "🇮": 4373,
      "🇲": 4374,
      "🇳": 4375,
      "🇵": 4376,
      "🇸": 4377,
      "🇹": 4378,
      "🇺": 4379,
      "🇻": 4380,
      "🌭": 4381,
      "🌳": 4382,
      "🌷": 4383,
      "🌹": 4384,
      "🌺": 4385,
      "🌻": 4386,
      "🌼": 4387,
      "🌽": 4388,
      "🌾": 4389,
      "🍫": 4390,
      "🍿": 4391,
      "🎁": 4392,
      "🎂": 4393,
      "🎉": 4394,
      "🎎": 4395,
      "🎤": 4396,
      "🎧": 4397,
      "🎷": 4398,
      "🎸": 4399,
      "🎺": 4400,
      "🎻": 4401,
      "🎼": 4402,
      "🏂": 4403,
      "🏃": 4404,
      "🏒": 4405,
      "🏟": 4406,
      "🏡": 4407,
      "🏦": 4408,
      "🏵": 4409,
      "🏻": 4410,
      "🏼": 4411,
      "🏾": 4412,
      "🐀": 4413,
      "🐒": 4414,
      "👁": 4415,
      "👇": 4416,
      "👉": 4417,
      "👊": 4418,
      "👌": 4419,
      "👍": 4420,
      "👎": 4421,
      "👏": 4422,
      "👑": 4423,
      "👣": 4424,
      "👤": 4425,
      "👧": 4426,
      "👨": 4427,
      "👩": 4428,
      "👯": 4429,
      "👱": 4430,
      "👲": 4431,
      "👳": 4432,
      "👹": 4433,
      "👾": 4434,
      "💌": 4435,
      "💐": 4436,
      "💑": 4437,
      "💔": 4438,
      "💕": 4439,
      "💘": 4440,
      "💙": 4441,
      "💚": 4442,
      "💟": 4443,
      "💥": 4444,
      "💰": 4445,
      "💸": 4446,
      "💻": 4447,
      "💿": 4448,
      "📈": 4449,
      "📌": 4450,
      "📳": 4451,
      "📷": 4452,
      "📺": 4453,
      "📻": 4454,
      "🔊": 4455,
      "🔍": 4456,
      "🔔": 4457,
      "🔘": 4458,
      "🔥": 4459,
      "🔹": 4460,
      "🕉": 4461,
      "🕸": 4462,
      "🖌": 4463,
      "🖐": 4464,
      "😀": 4465,
      "😁": 4466,
      "😂": 4467,
      "😃": 4468,
      "😄": 4469,
      "😅": 4470,
      "😇": 4471,
      "😉": 4472,
      "😊": 4473,
      "😋": 4474,
      "😌": 4475,
      "😍": 4476,
      "😎": 4477,
      "😏": 4478,
      "😐": 4479,
      "😑": 4480,
      "😒": 4481,
      "😓": 4482,
      "😔": 4483,
      "😖": 4484,
      "😘": 4485,
      "😛": 4486,
      "😜": 4487,
      "😝": 4488,
      "😠": 4489,
      "😡": 4490,
      "😢": 4491,
      "😤": 4492,
      "😥": 4493,
      "😨": 4494,
      "😩": 4495,
      "😪": 4496,
      "😬": 4497,
      "😭": 4498,
      "😲": 4499,
      "😳": 4500,
      "😷": 4501,
      "🙁": 4502,
      "🙂": 4503,
      "🙄": 4504,
      "🙇": 4505,
      "🙈": 4506,
      "🙊": 4507,
      "🙋": 4508,
      "🙌": 4509,
      "🙏": 4510,
      "🚣": 4511,
      "🚫": 4512,
      "🚵": 4513,
      "🟪": 4514,
      "🡆": 4515,
      "🤓": 4516,
      "🤔": 4517,
      "🤣": 4518,
      "🤩": 4519,
      "🤫": 4520,
      "🤷": 4521,
      "🥱": 4522,
      "🦳": 4523,
      "🩸": 4524,
      "🩺": 4525,
      "🪀": 4526,
      "🪐": 4527,
      "🪔": 4528,
      "𠀧": 4529,
      "𪡔": 4530,
      "󠄀": 4531,
      "󠄕": 4532,
      "󠅁": 4533,
      "󠆷": 4534,
      "􀀀": 4535,
      "􀁊": 4536,
      "􀄮": 4537,
      "􀇑": 4538,
      "􀇓": 4539,
      "􀈣": 4540,
      "􀉍": 4541,
      "􄑻": 4542,
      " t": 4543,
      "he": 4544,
      "in": 4545,
      " a": 4546,
      " the": 4547,
      " स": 4548,
      "को": 4549,
      "मा": 4550,
      "र्": 4551,
      " प": 4552,
      "on": 4553,
      "re": 4554,
      "्र": 4555,
      "का": 4556,
      "न्": 4557,
      "ha": 4558,
      "er": 4559,
      ".\n": 4560,
      " s": 4561,
      " o": 4562,
      "en": 4563,
      "।\n": 4564,
      "is": 4565,
      " ग": 4566,
      " w": 4567,
      " c": 4568,
      " b": 4569,
      "ले": 4570,
      " र": 4571,
      "it": 4572,
      " of": 4573,
      "्य": 4574,
      "an": 4575,
      "ed": 4576,
      "al": 4577,
      "ने": 4578,
      " p": 4579,
      "ला": 4580,
      "or": 4581,
      "at": 4582,
      " ब": 4583,
      " in": 4584,
      " f": 4585,
      "ar": 4586,
      "ing": 4587,
      " भ": 4588,
      "es": 4589,
      " to": 4590,
      " अ": 4591,
      " क": 4592,
      "nd": 4593,
      " व": 4594,
      " ह": 4595,
      " ।\n": 4596,
      "ार": 4597,
      "ou": 4598,
      " छ": 4599,
      "ion": 4600,
      " m": 4601,
      " d": 4602,
      " न": 4603,
      "ic": 4604,
      " त": 4605,
      " म": 4606,
      " प्र": 4607,
      "ent": 4608,
      " द": 4609,
      "le": 4610,
      " ज": 4611,
      "om": 4612,
      " and": 4613,
      "स्": 4614,
      " आ": 4615,
      " ha": 4616,
      "as": 4617,
      " T": 4618,
      "क्": 4619,
      "ाल": 4620,
      " उ": 4621,
      "ना": 4622,
      "ता": 4623,
      "il": 4624,
      " be": 4625,
      "ति": 4626,
      "यो": 4627,
      "ve": 4628,
      " n": 4629,
      "ान": 4630,
      "हर": 4631,
      "id": 4632,
      "एको": 4633,
      " गर्": 4634,
      " गर": 4635,
      " S": 4636,
      "ro": 4637,
      " वि": 4638,
      "ct": 4639,
      "नि": 4640,
      " is": 4641,
      "st": 4642,
      " का": 4643,
      " re": 4644,
      " l": 4645,
      "लाई": 4646,
      " e": 4647,
      "म्": 4648,
      "त्र": 4649,
      "hat": 4650,
      " g": 4651,
      "नु": 4652,
      "ot": 4653,
      "ur": 4654,
      "ay": 4655,
      "ेको": 4656,
      " A": 4657,
      " The": 4658,
      "am": 4659,
      " C": 4660,
      "im": 4661,
      " on": 4662,
      " M": 4663,
      " मा": 4664,
      "ad": 4665,
      " य": 4666,
      "वा": 4667,
      "ol": 4668,
      " P": 4669,
      "ation": 4670,
      "िक": 4671,
      "et": 4672,
      " that": 4673,
      "ित": 4674,
      " ए": 4675,
      "ut": 4676,
      " I": 4677,
      " for": 4678,
      " ला": 4679,
      " च": 4680,
      " h": 4681,
      " हु": 4682,
      " B": 4683,
      "्या": 4684,
      " N": 4685,
      "ter": 4686,
      "ce": 4687,
      "ment": 4688,
      "री": 4689,
      " has": 4690,
      " नि": 4691,
      " थ": 4692,
      " ल": 4693,
      " ख": 4694,
      "ir": 4695,
      "रा": 4696,
      "ver": 4697,
      "या": 4698,
      " रा": 4699,
      " श": 4700,
      "ep": 4701,
      " st": 4702,
      " th": 4703,
      "ly": 4704,
      "us": 4705,
      "ow": 4706,
      "न्द": 4707,
      " सं": 4708,
      " al": 4709,
      "क्ष": 4710,
      " स्": 4711,
      "त्": 4712,
      "ill": 4713,
      " सा": 4714,
      "था": 4715,
      "ल्": 4716,
      " D": 4717,
      "ra": 4718,
      "un": 4719,
      "ig": 4720,
      "ेर": 4721,
      "ith": 4722,
      "हरू": 4723,
      " he": 4724,
      " लाग": 4725,
      "ak": 4726,
      " H": 4727,
      " ने": 4728,
      "हि": 4729,
      "ist": 4730,
      " \"": 4731,
      " पनि": 4732,
      "ेश": 4733,
      " K": 4734,
      " pro": 4735,
      " को": 4736,
      "बा": 4737,
      "नी": 4738,
      " con": 4739,
      " दि": 4740,
      " with": 4741,
      "पाल": 4742,
      "ch": 4743,
      "and": 4744,
      "ाउ": 4745,
      " सम": 4746,
      " y": 4747,
      " R": 4748,
      "ष्": 4749,
      " फ": 4750,
      " not": 4751,
      "पा": 4752,
      "el": 4753,
      "res": 4754,
      " by": 4755,
      " wh": 4756,
      " was": 4757,
      " have": 4758,
      " com": 4759,
      "हा": 4760,
      "ुर": 4761,
      "op": 4762,
      "ers": 4763,
      "ul": 4764,
      "'s": 4765,
      " are": 4766,
      "हरु": 4767,
      " थि": 4768,
      " हो": 4769,
      " fr": 4770,
      "ag": 4771,
      "ld": 4772,
      " it": 4773,
      "os": 4774,
      "रि": 4775,
      "न्छ": 4776,
      " as": 4777,
      "em": 4778,
      "दै": 4779,
      "ity": 4780,
      "ेका": 4781,
      "th": 4782,
      " एक": 4783,
      " sa": 4784,
      "ri": 4785,
      " १": 4786,
      " been": 4787,
      "र्य": 4788,
      "s.\n": 4789,
      "एका": 4790,
      "दा": 4791,
      "ec": 4792,
      " from": 4793,
      "स्त": 4794,
      " at": 4795,
      "िका": 4796,
      " लागि": 4797,
      " v": 4798,
      "art": 4799,
      "बाट": 4800,
      " go": 4801,
      " छन्": 4802,
      "if": 4803,
      " गर्न": 4804,
      "द्": 4805,
      "est": 4806,
      "क्र": 4807,
      " २": 4808,
      " भने": 4809,
      " an": 4810,
      "ate": 4811,
      " यो": 4812,
      "epal": 4813,
      " त्य": 4814,
      "so": 4815,
      " भएको": 4816,
      " Nepal": 4817,
      " said": 4818,
      "s,": 4819,
      "ice": 4820,
      " के": 4821,
      " नेपाल": 4822,
      "her": 4823,
      "ाम": 4824,
      " पा": 4825,
      "कार": 4826,
      "nt": 4827,
      "od": 4828,
      "ere": 4829,
      "our": 4830,
      "लो": 4831,
      "न्त्र": 4832,
      "um": 4833,
      "ect": 4834,
      "ष्ट": 4835,
      " G": 4836,
      " r": 4837,
      "ेख": 4838,
      "वि": 4839,
      "रण": 4840,
      " W": 4841,
      "ive": 4842,
      "iv": 4843,
      "भा": 4844,
      " घ": 4845,
      "up": 4846,
      " (": 4847,
      "रो": 4848,
      " ट": 4849,
      "ud": 4850,
      " गरि": 4851,
      "्न": 4852,
      " ध": 4853,
      " सम्": 4854,
      "ेल": 4855,
      "छि": 4856,
      "ear": 4857,
      "ore": 4858,
      "ac": 4859,
      "oc": 4860,
      " also": 4861,
      " पु": 4862,
      " will": 4863,
      " रह": 4864,
      " 1": 4865,
      " निर्": 4866,
      " यस": 4867,
      "ain": 4868,
      "ही": 4869,
      "र्ष": 4870,
      "hi": 4871,
      " उन": 4872,
      "सा": 4873,
      "ous": 4874,
      " कु": 4875,
      " F": 4876,
      " O": 4877,
      " छ।\n": 4878,
      "han": 4879,
      " le": 4880,
      " गरेको": 4881,
      "ीय": 4882,
      "ort": 4883,
      " ड": 4884,
      " कार्य": 4885,
      "ess": 4886,
      " wor": 4887,
      " गर्ने": 4888,
      " बा": 4889,
      "्च": 4890,
      "ry": 4891,
      " L": 4892,
      "ab": 4893,
      " सु": 4894,
      "ht": 4895,
      "न्त": 4896,
      "ारी": 4897,
      "देश": 4898,
      "e.\n": 4899,
      " ex": 4900,
      " आफ": 4901,
      "ial": 4902,
      "स्था": 4903,
      " प्रति": 4904,
      "िय": 4905,
      "टा": 4906,
      " अध": 4907,
      "ली": 4908,
      "गा": 4909,
      "cc": 4910,
      "?\n": 4911,
      "ould": 4912,
      " व्य": 4913,
      "िन": 4914,
      " this": 4915,
      "ies": 4916,
      "ant": 4917,
      "end": 4918,
      " '": 4919,
      "्रो": 4920,
      " बता": 4921,
      "ong": 4922,
      "e,": 4923,
      " क्": 4924,
      "ँग": 4925,
      " थियो": 4926,
      " or": 4927,
      "ub": 4928,
      "ेखि": 4929,
      " अनु": 4930,
      "fter": 4931,
      "ction": 4932,
      "योग": 4933,
      "00": 4934,
      "धान": 4935,
      " सर": 4936,
      "ew": 4937,
      " In": 4938,
      " pl": 4939,
      "ure": 4940,
      " उप": 4941,
      " inc": 4942,
      " ‘": 4943,
      "पछि": 4944,
      "पर्": 4945,
      "ap": 4946,
      " sh": 4947,
      "कि": 4948,
      "vern": 4949,
      " E": 4950,
      "qu": 4951,
      " दु": 4952,
      "ण्": 4953,
      "ाइ": 4954,
      "भि": 4955,
      " तथा": 4956,
      " 2": 4957,
      " -": 4958,
      "द्ध": 4959,
      "ok": 4960,
      " J": 4961,
      "und": 4962,
      "ast": 4963,
      " ab": 4964,
      "li": 4965,
      "ेट": 4966,
      " वा": 4967,
      "ric": 4968,
      "म्म": 4969,
      " बढ": 4970,
      " ag": 4971,
      " who": 4972,
      "port": 4973,
      "बार": 4974,
      "vernment": 4975,
      "रह": 4976,
      " वर्ष": 4977,
      " de": 4978,
      " हुने": 4979,
      " बि": 4980,
      "ालय": 4981,
      "ome": 4982,
      "क्रम": 4983,
      "्व": 4984,
      "टी": 4985,
      "सँग": 4986,
      "ount": 4987,
      "गर": 4988,
      " you": 4989,
      "की": 4990,
      " जना": 4991,
      "प्": 4992,
      " He": 4993,
      " सि": 4994,
      " se": 4995,
      " सह": 4996,
      "ust": 4997,
      "ip": 4998,
      "स्थ": 4999,
      "ight": 5000,
      "र्थ": 5001,
      "ding": 5002,
      "ंग": 5003,
      "ff": 5004,
      "rou": 5005,
      " pe": 5006,
      " तर": 5007,
      "ूर्": 5008,
      " राज": 5009,
      "बै": 5010,
      " मु": 5011,
      " k": 5012,
      "ia": 5013,
      "सी": 5014,
      " comp": 5015,
      "न्न": 5016,
      "ople": 5017,
      " government": 5018,
      " after": 5019,
      " इ": 5020,
      "ated": 5021,
      "..": 5022,
      "ङ्": 5023,
      " अव": 5024,
      "day": 5025,
      " रु": 5026,
      " क्ष": 5027,
      "न्य": 5028,
      "pp": 5029,
      " part": 5030,
      " work": 5031,
      "ard": 5032,
      " year": 5033,
      "ण्ड": 5034,
      " U": 5035,
      "पमा": 5036,
      "जार": 5037,
      "िल्": 5038,
      "ौं": 5039,
      "िम": 5040,
      " त्यस": 5041,
      " सरकार": 5042,
      "out": 5043,
      "न्दा": 5044,
      "नमा": 5045,
      " विश": 5046,
      " थिए": 5047,
      "कारी": 5048,
      " सबै": 5049,
      " people": 5050,
      "ष्ट्र": 5051,
      "all": 5052,
      " उनले": 5053,
      " परि": 5054,
      "iz": 5055,
      "ेत": 5056,
      "ister": 5057,
      "क्त": 5058,
      "ident": 5059,
      " can": 5060,
      " inf": 5061,
      " ठ": 5062,
      " नै": 5063,
      "ber": 5064,
      "ेस": 5065,
      "vel": 5066,
      " कि": 5067,
      " had": 5068,
      "ary": 5069,
      "सार": 5070,
      "ime": 5071,
      "ther": 5072,
      "ru": 5073,
      "प्र": 5074,
      " do": 5075,
      "te": 5076,
      "हाँ": 5077,
      " हाम": 5078,
      "ven": 5079,
      " स्थ": 5080,
      "ame": 5081,
      " sp": 5082,
      " im": 5083,
      "ीले": 5084,
      "ich": 5085,
      "ाउँ": 5086,
      " all": 5087,
      " ad": 5088,
      " से": 5089,
      "हु": 5090,
      " भए": 5091,
      "नुपर्": 5092,
      " लि": 5093,
      " बै": 5094,
      "ang": 5095,
      "धि": 5096,
      "inister": 5097,
      "ue": 5098,
      " बना": 5099,
      "ैन": 5100,
      " काम": 5101,
      "a,": 5102,
      "नको": 5103,
      " dis": 5104,
      "याँ": 5105,
      " me": 5106,
      "age": 5107,
      " res": 5108,
      "ree": 5109,
      "न्द्र": 5110,
      "ress": 5111,
      " we": 5112,
      "द्य": 5113,
      "ari": 5114,
      "लि": 5115,
      " रहेको": 5116,
      " pol": 5117,
      "ost": 5118,
      "डा": 5119,
      " २०": 5120,
      "सि": 5121,
      " उनी": 5122,
      "ake": 5123,
      " there": 5124,
      "orm": 5125,
      "न्त्री": 5126,
      "ance": 5127,
      "du": 5128,
      " man": 5129,
      "one": 5130,
      " सक्": 5131,
      " V": 5132,
      "ath": 5133,
      "ानी": 5134,
      "ire": 5135,
      " su": 5136,
      "जा": 5137,
      " व्यव": 5138,
      "हिले": 5139,
      "डि": 5140,
      "ुरु": 5141,
      "म्प": 5142,
      " were": 5143,
      "जना": 5144,
      " comm": 5145,
      " प्रा": 5146,
      " रो": 5147,
      " Th": 5148,
      " ३": 5149,
      "ँदै": 5150,
      "har": 5151,
      " तपा": 5152,
      " भन्": 5153,
      "ती": 5154,
      "ेत्र": 5155,
      " छैन": 5156,
      " his": 5157,
      " which": 5158,
      "es.\n": 5159,
      " समा": 5160,
      " सो": 5161,
      " मि": 5162,
      "स्ता": 5163,
      "न्ध": 5164,
      " गरेका": 5165,
      "धार": 5166,
      " देखि": 5167,
      " आफ्न": 5168,
      " tw": 5169,
      "ed.\n": 5170,
      "सम्म": 5171,
      " ar": 5172,
      "टर": 5173,
      " j": 5174,
      " गरिएको": 5175,
      " us": 5176,
      " पर्": 5177,
      "त्य": 5178,
      "मु": 5179,
      " un": 5180,
      "are": 5181,
      " क्षेत्र": 5182,
      "ik": 5183,
      "ical": 5184,
      " उत्": 5185,
      "ide": 5186,
      "av": 5187,
      "क्षा": 5188,
      "gh": 5189,
      "चार": 5190,
      "ef": 5191,
      " whe": 5192,
      "se": 5193,
      "एर": 5194,
      "उन": 5195,
      "ult": 5196,
      " जा": 5197,
      "र्म": 5198,
      " count": 5199,
      "क्ति": 5200,
      "ign": 5201,
      "es,": 5202,
      " cl": 5203,
      "छ।\n": 5204,
      " Ind": 5205,
      " मात्र": 5206,
      "ध्य": 5207,
      " जो": 5208,
      "वार": 5209,
      "ank": 5210,
      " पार्": 5211,
      "उने": 5212,
      " तपाई": 5213,
      "ग्र": 5214,
      "very": 5215,
      "ition": 5216,
      "ans": 5217,
      "ution": 5218,
      "hed": 5219,
      "lo": 5220,
      " cont": 5221,
      "ंक": 5222,
      " te": 5223,
      "ade": 5224,
      " समय": 5225,
      " op": 5226,
      " off": 5227,
      " हजार": 5228,
      " रू": 5229,
      " मह": 5230,
      " It": 5231,
      " one": 5232,
      "ेला": 5233,
      " अर्": 5234,
      " ne": 5235,
      " गरे": 5236,
      "दी": 5237,
      " राष्ट्र": 5238,
      " ५": 5239,
      " per": 5240,
      "ेरै": 5241,
      "ble": 5242,
      " जन": 5243,
      "रु": 5244,
      "छन्": 5245,
      " ना": 5246,
      " बु": 5247,
      " int": 5248,
      " भएका": 5249,
      " स्थान": 5250,
      " जान": 5251,
      "्ने": 5252,
      " Minister": 5253,
      "माण": 5254,
      " exp": 5255,
      " should": 5256,
      " राख": 5257,
      "ine": 5258,
      " दिन": 5259,
      " गर्दै": 5260,
      " हुन्छ": 5261,
      " day": 5262,
      " महि": 5263,
      " other": 5264,
      " Pr": 5265,
      " कम": 5266,
      "सक": 5267,
      "्रा": 5268,
      " धेरै": 5269,
      "भाव": 5270,
      " Ch": 5271,
      "नै": 5272,
      " आफ्नो": 5273,
      "ेक": 5274,
      "aj": 5275,
      "ational": 5276,
      "दि": 5277,
      " ओ": 5278,
      "ge": 5279,
      " ती": 5280,
      "ccor": 5281,
      "पालिका": 5282,
      "ञ्च": 5283,
      "ile": 5284,
      " dec": 5285,
      "जी": 5286,
      "हो": 5287,
      "मन्त्री": 5288,
      " two": 5289,
      " अध्य": 5290,
      "aha": 5291,
      " ro": 5292,
      "y.\n": 5293,
      " हुन": 5294,
      "rict": 5295,
      "ish": 5296,
      "िति": 5297,
      "ace": 5298,
      " pre": 5299,
      "ark": 5300,
      " dist": 5301,
      " am": 5302,
      "तिक": 5303,
      "शा": 5304,
      "स्तो": 5305,
      " but": 5306,
      "omm": 5307,
      " prov": 5308,
      " they": 5309,
      " प्रहर": 5310,
      " only": 5311,
      " ele": 5312,
      " und": 5313,
      " बताए": 5314,
      "रहेको": 5315,
      " say": 5316,
      " lead": 5317,
      "ccording": 5318,
      "लेख": 5319,
      " गत": 5320,
      " more": 5321,
      "बन्ध": 5322,
      " about": 5323,
      " गरी": 5324,
      " चा": 5325,
      "ेद": 5326,
      "ारत": 5327,
      "ens": 5328,
      "गत": 5329,
      " कारण": 5330,
      " छन्।\n": 5331,
      "ell": 5332,
      " पहि": 5333,
      "िल्ला": 5334,
      "ाउन": 5335,
      " their": 5336,
      "\"\n": 5337,
      " भन्ने": 5338,
      " ४": 5339,
      " दुई": 5340,
      " tr": 5341,
      " up": 5342,
      " under": 5343,
      " साथ": 5344,
      "old": 5345,
      "ज्": 5346,
      "y,": 5347,
      "ital": 5348,
      "डी": 5349,
      " कुरा": 5350,
      " स्वा": 5351,
      "नुभ": 5352,
      "मान": 5353,
      "lic": 5354,
      " पर": 5355,
      "ass": 5356,
      "int": 5357,
      " out": 5358,
      " पुग": 5359,
      " घर": 5360,
      "िया": 5361,
      "ence": 5362,
      "टक": 5363,
      "र्व": 5364,
      " Y": 5365,
      " आव": 5366,
      "ठमा": 5367,
      " As": 5368,
      " खो": 5369,
      "reas": 5370,
      "ater": 5371,
      " bec": 5372,
      " केही": 5373,
      "निक": 5374,
      "ind": 5375,
      " लग": 5376,
      " जिल्ला": 5377,
      " भारत": 5378,
      "ach": 5379,
      " loc": 5380,
      "ेन्": 5381,
      "जन": 5382,
      " no": 5383,
      " प्रदेश": 5384,
      "og": 5385,
      "...\n": 5386,
      "कु": 5387,
      " so": 5388,
      " भा": 5389,
      "anc": 5390,
      "त्व": 5391,
      " था": 5392,
      "ince": 5393,
      " pr": 5394,
      " pres": 5395,
      "ूल": 5396,
      "stit": 5397,
      " स्व": 5398,
      " app": 5399,
      "कृ": 5400,
      "र्ता": 5401,
      "्रम": 5402,
      " new": 5403,
      "बी": 5404,
      " नेपाली": 5405,
      " अहिले": 5406,
      " sec": 5407,
      " तपाईं": 5408,
      "lud": 5409,
      "ove": 5410,
      "ट्": 5411,
      "icip": 5412,
      " its": 5413,
      "ose": 5414,
      " sc": 5415,
      "ail": 5416,
      "ly,": 5417,
      "able": 5418,
      " काठमा": 5419,
      "श्य": 5420,
      "टो": 5421,
      "irst": 5422,
      "i,": 5423,
      "ुन": 5424,
      " दा": 5425,
      " बो": 5426,
      " पूर्": 5427,
      " अन्त": 5428,
      "velop": 5429,
      " meet": 5430,
      " ६": 5431,
      "erv": 5432,
      "ब्": 5433,
      "ack": 5434,
      "ram": 5435,
      " खा": 5436,
      "ैले": 5437,
      " cor": 5438,
      " ।\n": 5439,
      " कुनै": 5440,
      "च्च": 5441,
      " देश": 5442,
      "ाउने": 5443,
      "्यो": 5444,
      " झ": 5445,
      "कास": 5446,
      " country": 5447,
      " than": 5448,
      "ारा": 5449,
      "ality": 5450,
      " लाख": 5451,
      "सो": 5452,
      " being": 5453,
      "चि": 5454,
      "gan": 5455,
      " 3": 5456,
      "ाली": 5457,
      " यु": 5458,
      "मुख": 5459,
      "उँ": 5460,
      " कार्यक्रम": 5461,
      "pa": 5462,
      " हि": 5463,
      "र्फ": 5464,
      " if": 5465,
      "इन": 5466,
      "भन्दा": 5467,
      " पार्टी": 5468,
      "हरूको": 5469,
      " हुन्": 5470,
      " निर्माण": 5471,
      "पूर्": 5472,
      "देखि": 5473,
      " There": 5474,
      "स्ट": 5475,
      " made": 5476,
      "man": 5477,
      " मो": 5478,
      " काठमाड": 5479,
      " महा": 5480,
      "si": 5481,
      " inv": 5482,
      " 5": 5483,
      " includ": 5484,
      "ound": 5485,
      "ll": 5486,
      "घि": 5487,
      "sion": 5488,
      "नुपर्ने": 5489,
      " प्रयोग": 5490,
      "ing.\n": 5491,
      " inform": 5492,
      "म्ब": 5493,
      " गो": 5494,
      "ँच": 5495,
      " Cha": 5496,
      " जानकारी": 5497,
      " राम": 5498,
      " हा": 5499,
      "कै": 5500,
      "ations": 5501,
      " qu": 5502,
      " ch": 5503,
      " व्यवस्था": 5504,
      " form": 5505,
      " De": 5506,
      "पी": 5507,
      " पो": 5508,
      "tern": 5509,
      "स्तै": 5510,
      " first": 5511,
      "red": 5512,
      "alth": 5513,
      " निय": 5514,
      "mp": 5515,
      " en": 5516,
      " अवस्था": 5517,
      " सय": 5518,
      "reat": 5519,
      "मेर": 5520,
      " increas": 5521,
      "फल": 5522,
      "rit": 5523,
      "यर": 5524,
      " या": 5525,
      "inist": 5526,
      " This": 5527,
      "रोना": 5528,
      " Comm": 5529,
      " प्रधान": 5530,
      "ook": 5531,
      "मि": 5532,
      " विकास": 5533,
      " गु": 5534,
      "urn": 5535,
      "श्यक": 5536,
      "दान": 5537,
      "मी": 5538,
      " start": 5539,
      " state": 5540,
      "aw": 5541,
      " केन्द्र": 5542,
      "own": 5543,
      " हामी": 5544,
      "टि": 5545,
      " again": 5546,
      " ?\n": 5547,
      " अध्यक्ष": 5548,
      " शि": 5549,
      " अनुसार": 5550,
      "ision": 5551,
      " चि": 5552,
      " रूपमा": 5553,
      "eral": 5554,
      " कोरोना": 5555,
      " when": 5556,
      " tak": 5557,
      "itte": 5558,
      " rec": 5559,
      " mon": 5560,
      " three": 5561,
      " 20": 5562,
      " According": 5563,
      "ौँ": 5564,
      " even": 5565,
      " लगा": 5566,
      " गर्नु": 5567,
      "हरूले": 5568,
      " शा": 5569,
      "oint": 5570,
      "र्च": 5571,
      " cons": 5572,
      "सको": 5573,
      " खेल": 5574,
      "रमा": 5575,
      "जि": 5576,
      " अधिका": 5577,
      "ild": 5578,
      " खु": 5579,
      " सञ्च": 5580,
      " नगर": 5581,
      "get": 5582,
      " ७": 5583,
      "mand": 5584,
      " प्रहरी": 5585,
      "ing,": 5586,
      " time": 5587,
      "ज्ञ": 5588,
      "stru": 5589,
      "पुर": 5590,
      " विश्व": 5591,
      " कम्प": 5592,
      "स्य": 5593,
      "ष्ठ": 5594,
      "ix": 5595,
      "ond": 5596,
      "ord": 5597,
      "mandu": 5598,
      "stitution": 5599,
      " नयाँ": 5600,
      "athmandu": 5601,
      " सकि": 5602,
      " कार्यालय": 5603,
      " reg": 5604,
      " On": 5605,
      " ति": 5606,
      " now": 5607,
      "ple": 5608,
      " आयो": 5609,
      "क्षण": 5610,
      " while": 5611,
      "स्प": 5612,
      " St": 5613,
      "erson": 5614,
      "खा": 5615,
      "यन": 5616,
      "वन": 5617,
      " सद": 5618,
      " Kathmandu": 5619,
      "्री": 5620,
      " them": 5621,
      "a.\n": 5622,
      " पछि": 5623,
      "hip": 5624,
      "हित": 5625,
      "प्त": 5626,
      " सरकारले": 5627,
      "कमा": 5628,
      " भि": 5629,
      " such": 5630,
      " विष": 5631,
      "धा": 5632,
      "भाग": 5633,
      "ctor": 5634,
      " would": 5635,
      "्यान": 5636,
      " आवश्यक": 5637,
      " सामा": 5638,
      " acc": 5639,
      " देख": 5640,
      " tim": 5641,
      " Nepali": 5642,
      " स्थानीय": 5643,
      "सले": 5644,
      "हरुले": 5645,
      "uring": 5646,
      "vi": 5647,
      " But": 5648,
      "्रे": 5649,
      " Pro": 5650,
      "इएको": 5651,
      "!\n": 5652,
      " तय": 5653,
      " over": 5654,
      "स्थ्य": 5655,
      "सम": 5656,
      "पि": 5657,
      " him": 5658,
      " हो।\n": 5659,
      " How": 5660,
      " प्रमुख": 5661,
      " some": 5662,
      " India": 5663,
      " पहिलो": 5664,
      " 4": 5665,
      " समेत": 5666,
      "सन": 5667,
      " due": 5668,
      "ग्": 5669,
      "ँदा": 5670,
      "cted": 5671,
      " att": 5672,
      " co": 5673,
      "ever": 5674,
      "ating": 5675,
      "यत": 5676,
      "velopment": 5677,
      "ection": 5678,
      " भइ": 5679,
      " आज": 5680,
      " party": 5681,
      " bu": 5682,
      " did": 5683,
      "वी": 5684,
      "fere": 5685,
      " ra": 5686,
      " prog": 5687,
      " बढी": 5688,
      ",\"": 5689,
      "ted": 5690,
      "ities": 5691,
      " गाउँ": 5692,
      "illion": 5693,
      " any": 5694,
      " stud": 5695,
      "लमा": 5696,
      "रको": 5697,
      "ublic": 5698,
      "emb": 5699,
      " सेवा": 5700,
      "मै": 5701,
      " district": 5702,
      " भने,": 5703,
      " महिला": 5704,
      "मो": 5705,
      " ल्या": 5706,
      "ताको": 5707,
      "ced": 5708,
      "ember": 5709,
      "unicip": 5710,
      " ढ": 5711,
      " last": 5712,
      "ren": 5713,
      " कम्पनी": 5714,
      "थि": 5715,
      " play": 5716,
      " थियो।\n": 5717,
      "vent": 5718,
      " ind": 5719,
      "ower": 5720,
      "osp": 5721,
      "पाद": 5722,
      " छ,": 5723,
      " गा": 5724,
      " उनको": 5725,
      " pos": 5726,
      "rest": 5727,
      " rem": 5728,
      "स्या": 5729,
      "हरुको": 5730,
      " गरेर": 5731,
      " including": 5732,
      " get": 5733,
      " Sh": 5734,
      " your": 5735,
      " व्यक्ति": 5736,
      "ian": 5737,
      " कस": 5738,
      "करण": 5739,
      "णा": 5740,
      " मन्त्र": 5741,
      " विषय": 5742,
      "ved": 5743,
      " अन्य": 5744,
      " br": 5745,
      " local": 5746,
      "arli": 5747,
      " fin": 5748,
      " सुरु": 5749,
      "aus": 5750,
      " दो": 5751,
      "hief": 5752,
      "ty": 5753,
      "igh": 5754,
      " आइ": 5755,
      " बज": 5756,
      "भिन्न": 5757,
      " dem": 5758,
      "ting": 5759,
      "elf": 5760,
      " ८": 5761,
      "ताल": 5762,
      "rough": 5763,
      " same": 5764,
      " संक्रम": 5765,
      " स्वास्थ्य": 5766,
      " बैंक": 5767,
      " col": 5768,
      "शत": 5769,
      "होस्": 5770,
      " num": 5771,
      " जी": 5772,
      "ोक": 5773,
      "लु": 5774,
      " संग": 5775,
      "पति": 5776,
      "ual": 5777,
      "ेन": 5778,
      " cas": 5779,
      " disc": 5780,
      " नेता": 5781,
      "न्दै": 5782,
      " सुर": 5783,
      " dif": 5784,
      "ered": 5785,
      "ation,": 5786,
      " meeting": 5787,
      "way": 5788,
      "cha": 5789,
      "यु": 5790,
      " bus": 5791,
      " डि": 5792,
      " आएको": 5793,
      "ood": 5794,
      " समिति": 5795,
      " औ": 5796,
      " समस्या": 5797,
      "वेश": 5798,
      "नुहु": 5799,
      " प्रतिशत": 5800,
      " through": 5801,
      " प्रधानमन्त्री": 5802,
      " भन्दा": 5803,
      " रुप": 5804,
      " रहेका": 5805,
      " act": 5806,
      " १०": 5807,
      " त्यो": 5808,
      " डा": 5809,
      " cha": 5810,
      " काठमाडौं": 5811,
      " मृ": 5812,
      " रुपमा": 5813,
      "र्ड": 5814,
      "ject": 5815,
      "ism": 5816,
      "'t": 5817,
      " four": 5818,
      " एउ": 5819,
      "टन": 5820,
      "ospital": 5821,
      "र्श": 5822,
      "ament": 5823,
      "rib": 5824,
      " बैठ": 5825,
      "जिक": 5826,
      " ९": 5827,
      " छो": 5828,
      "ीमा": 5829,
      "ike": 5830,
      " सञ्चाल": 5831,
      "नुभयो": 5832,
      "समा": 5833,
      "ेष": 5834,
      " bet": 5835,
      " सदस्य": 5836,
      " विभिन्न": 5837,
      " Pol": 5838,
      "ied": 5839,
      "साय": 5840,
      " held": 5841,
      " number": 5842,
      " every": 5843,
      " serv": 5844,
      "पूर्ण": 5845,
      "णय": 5846,
      " compan": 5847,
      " sit": 5848,
      "र्क": 5849,
      " wom": 5850,
      " रि": 5851,
      " निर्वा": 5852,
      " Ma": 5853,
      " अमेर": 5854,
      " produ": 5855,
      " हे": 5856,
      "सद": 5857,
      "ख्या": 5858,
      "न्छ।\n": 5859,
      "र्त": 5860,
      " make": 5861,
      " Prime": 5862,
      "ited": 5863,
      " ठू": 5864,
      "ool": 5865,
      " व्या": 5866,
      "unicipality": 5867,
      " soc": 5868,
      " निर्णय": 5869,
      " अब": 5870,
      "pe": 5871,
      "रोड": 5872,
      " तीन": 5873,
      " घट": 5874,
      " invest": 5875,
      " vill": 5876,
      "ning": 5877,
      " सम्बन्ध": 5878,
      " अस्प": 5879,
      "ret": 5880,
      "we": 5881,
      "ुट": 5882,
      " cent": 5883,
      " मे": 5884,
      " program": 5885,
      "र्ग": 5886,
      " against": 5887,
      "imil": 5888,
      "न्ड": 5889,
      " विद्य": 5890,
      "सर": 5891,
      "ever,": 5892,
      "con": 5893,
      "श्च": 5894,
      " नभ": 5895,
      "राज": 5896,
      " संघ": 5897,
      " far": 5898,
      " करोड": 5899,
      " kn": 5900,
      " month": 5901,
      "wn": 5902,
      " अस्पताल": 5903,
      "ोग": 5904,
      "ward": 5905,
      " भू": 5906,
      "वाद": 5907,
      "other": 5908,
      " coron": 5909,
      " उहाँ": 5910,
      " दिए": 5911,
      "सं": 5912,
      "नामा": 5913,
      " पार": 5914,
      "ative": 5915,
      "blem": 5916,
      " सू": 5917,
      "धन": 5918,
      " take": 5919,
      " fil": 5920,
      " भयो": 5921,
      "struction": 5922,
      " उत्पाद": 5923,
      "ittee": 5924,
      "ङ्ग": 5925,
      "akh": 5926,
      "imilar": 5927,
      " person": 5928,
      " police": 5929,
      "सु": 5930,
      "ai": 5931,
      "ung": 5932,
      "ation.\n": 5933,
      " मानि": 5934,
      " hous": 5935,
      "त्म": 5936,
      " med": 5937,
      " sub": 5938,
      " giv": 5939,
      " into": 5940,
      " लेख": 5941,
      " many": 5942,
      "ected": 5943,
      "ousand": 5944,
      " प्रश": 5945,
      "्छ": 5946,
      " tra": 5947,
      " problem": 5948,
      " गर्दा": 5949,
      " राष्ट्रिय": 5950,
      " \"T": 5951,
      " come": 5952,
      "्रि": 5953,
      " five": 5954,
      " mat": 5955,
      "पना": 5956,
      "ght": 5957,
      "low": 5958,
      "दुर": 5959,
      " organ": 5960,
      " found": 5961,
      "ci": 5962,
      " like": 5963,
      "्रेस": 5964,
      "र्थिक": 5965,
      ".\"\n": 5966,
      " An": 5967,
      " Cong": 5968,
      "ite": 5969,
      " mark": 5970,
      "ek": 5971,
      " rel": 5972,
      "ory": 5973,
      " निर्वाच": 5974,
      " शु": 5975,
      " need": 5976,
      " Con": 5977,
      "रहेका": 5978,
      " sy": 5979,
      "er,": 5980,
      " health": 5981,
      " भन्दै": 5982,
      "xt": 5983,
      " नाम": 5984,
      " ओली": 5985,
      "चना": 5986,
      " मूल": 5987,
      "पन": 5988,
      "ural": 5989,
      " 6": 5990,
      "ility": 5991,
      "esh": 5992,
      " ent": 5993,
      " आर्थिक": 5994,
      "ission": 5995,
      " cap": 5996,
      " आफू": 5997,
      " thousand": 5998,
      " said,": 5999,
      " गते": 6000,
      " Oli": 6001,
      "लन": 6002,
      " 10": 6003,
      "न्ति": 6004,
      " कृ": 6005,
      "त्त": 6006,
      "ati": 6007,
      " add": 6008,
      " polit": 6009,
      "000": 6010,
      "हार": 6011,
      "ees": 6012,
      " Chin": 6013,
      " सहयोग": 6014,
      "र्या": 6015,
      " Un": 6016,
      " मुख": 6017,
      "oun": 6018,
      "लको": 6019,
      " छा": 6020,
      "loy": 6021,
      " आधार": 6022,
      "ick": 6023,
      " बे": 6024,
      " हुँदै": 6025,
      " मन": 6026,
      "ink": 6027,
      " जि": 6028,
      "per": 6029,
      "ract": 6030,
      "uc": 6031,
      " could": 6032,
      " report": 6033,
      " dep": 6034,
      " sup": 6035,
      " किन": 6036,
      " थप": 6037,
      " Police": 6038,
      " cur": 6039,
      " मन्त्रालय": 6040,
      "ञ्": 6041,
      "्वा": 6042,
      " राजनी": 6043,
      "र्ट": 6044,
      "pt": 6045,
      "त्यु": 6046,
      "सकेको": 6047,
      " leaders": 6048,
      " \"\"": 6049,
      " public": 6050,
      " election": 6051,
      " bank": 6052,
      "ोर": 6053,
      " good": 6054,
      " रुपै": 6055,
      " However,": 6056,
      "eneral": 6057,
      "ित्": 6058,
      " her": 6059,
      " child": 6060,
      "ारे": 6061,
      "hy": 6062,
      "inistry": 6063,
      "ahad": 6064,
      "pur": 6065,
      " how": 6066,
      " राम्रो": 6067,
      " informed": 6068,
      " एउटा": 6069,
      "ided": 6070,
      "क्ता": 6071,
      " गर्द": 6072,
      "न्या": 6073,
      " started": 6074,
      " Off": 6075,
      " resp": 6076,
      "माले": 6077,
      " संस्था": 6078,
      "resident": 6079,
      "les": 6080,
      " २०७": 6081,
      " पुन": 6082,
      " पत्र": 6083,
      " मृत्यु": 6084,
      " world": 6085,
      "iness": 6086,
      " बस": 6087,
      "हरूलाई": 6088,
      " उक्त": 6089,
      " हाल": 6090,
      " what": 6091,
      " नगरपालिका": 6092,
      "वादी": 6093,
      " विशेष": 6094,
      " six": 6095,
      " vari": 6096,
      " बस्": 6097,
      "chool": 6098,
      " बाल": 6099,
      " सक": 6100,
      " taken": 6101,
      "rop": 6102,
      "िएको": 6103,
      " ता": 6104,
      "hak": 6105,
      " very": 6106,
      " then": 6107,
      " उल्": 6108,
      "िर": 6109,
      " माग": 6110,
      " comple": 6111,
      " /": 6112,
      "esp": 6113,
      " आयोजना": 6114,
      " Ar": 6115,
      " emp": 6116,
      " प्रभाव": 6117,
      "ob": 6118,
      "कको": 6119,
      " Man": 6120,
      "ृद्ध": 6121,
      " trans": 6122,
      "ates": 6123,
      "स्थित": 6124,
      "ives": 6125,
      "ral": 6126,
      "काश": 6127,
      " rup": 6128,
      " सड": 6129,
      " bas": 6130,
      " परी": 6131,
      "हादुर": 6132,
      " level": 6133,
      " स्था": 6134,
      "न्।\n": 6135,
      "सहित": 6136,
      " market": 6137,
      " today": 6138,
      " भनेर": 6139,
      " टो": 6140,
      "ween": 6141,
      " रुपैयाँ": 6142,
      "ूह": 6143,
      "med": 6144,
      "alk": 6145,
      "्यु": 6146,
      " set": 6147,
      " during": 6148,
      "ahadur": 6149,
      "हरुलाई": 6150,
      " Similar": 6151,
      " iss": 6152,
      "चा": 6153,
      " run": 6154,
      "ड्": 6155,
      "roup": 6156,
      " dire": 6157,
      " fore": 6158,
      " fe": 6159,
      " तर,": 6160,
      "uch": 6161,
      " going": 6162,
      " between": 6163,
      " fam": 6164,
      " दिने": 6165,
      " ठूलो": 6166,
      "act": 6167,
      "न,": 6168,
      " my": 6169,
      "ists": 6170,
      "बु": 6171,
      " Rs": 6172,
      " Similarly,": 6173,
      " क्षेत्रमा": 6174,
      "ov": 6175,
      " team": 6176,
      " सार्व": 6177,
      "जु": 6178,
      " office": 6179,
      "द्या": 6180,
      "ीत": 6181,
      "arn": 6182,
      "fore": 6183,
      "vers": 6184,
      "कले": 6185,
      "क्रिया": 6186,
      " बजार": 6187,
      " बेला": 6188,
      "से": 6189,
      " बाँ": 6190,
      " development": 6191,
      "hes": 6192,
      " पू": 6193,
      " ले": 6194,
      "तन्त्र": 6195,
      " lif": 6196,
      "er.\n": 6197,
      " अप": 6198,
      " क्रम": 6199,
      " offic": 6200,
      "र्न": 6201,
      " does": 6202,
      " जनाएको": 6203,
      "वारी": 6204,
      "नुपर्छ": 6205,
      "round": 6206,
      " यस्तो": 6207,
      " land": 6208,
      " organiz": 6209,
      "au": 6210,
      " सङ्": 6211,
      " चु": 6212,
      "भित्र": 6213,
      " sha": 6214,
      "ert": 6215,
      "ed,": 6216,
      "गरिक": 6217,
      " president": 6218,
      " अभ": 6219,
      " Bahadur": 6220,
      "तामा": 6221,
      " सम्म": 6222,
      "ents": 6223,
      "ेरो": 6224,
      " our": 6225,
      " We": 6226,
      "हान": 6227,
      " जुन": 6228,
      "न्स": 6229,
      " differe": 6230,
      " call": 6231,
      "esday": 6232,
      " open": 6233,
      "row": 6234,
      " years": 6235,
      " दल": 6236,
      "जनिक": 6237,
      "भर": 6238,
      "वै": 6239,
      " उद्य": 6240,
      " ac": 6241,
      "कम": 6242,
      "oth": 6243,
      " Al": 6244,
      "ause": 6245,
      " यसको": 6246,
      "स्तु": 6247,
      " मुख्य": 6248,
      " place": 6249,
      "ough": 6250,
      "बीच": 6251,
      " सन्": 6252,
      "तृ": 6253,
      " दिएको": 6254,
      "rent": 6255,
      " chan": 6256,
      " Am": 6257,
      "ft": 6258,
      " ins": 6259,
      " निर्देश": 6260,
      " व्यवसाय": 6261,
      " नागरिक": 6262,
      "ments": 6263,
      " Congress": 6264,
      "सँगै": 6265,
      " दे": 6266,
      "ict": 6267,
      "धिक": 6268,
      " road": 6269,
      " main": 6270,
      "arliament": 6271,
      " प्राप्त": 6272,
      "ority": 6273,
      "ached": 6274,
      " 8": 6275,
      " water": 6276,
      " bod": 6277,
      " सम्प": 6278,
      " ret": 6279,
      "अघि": 6280,
      " सार्वजनिक": 6281,
      " lakh": 6282,
      " पक्ष": 6283,
      " sm": 6284,
      " able": 6285,
      "ीको": 6286,
      "ोष": 6287,
      " थिए।\n": 6288,
      "enc": 6289,
      " hand": 6290,
      " import": 6291,
      " उपचार": 6292,
      " well": 6293,
      " साम": 6294,
      " used": 6295,
      " योजना": 6296,
      " those": 6297,
      " film": 6298,
      " conf": 6299,
      " rep": 6300,
      " ची": 6301,
      "क्स": 6302,
      "aking": 6303,
      " यी": 6304,
      "चिव": 6305,
      "ept": 6306,
      " want": 6307,
      "ourt": 6308,
      " निका": 6309,
      " बुझ": 6310,
      " oper": 6311,
      " she": 6312,
      "ax": 6313,
      " Fr": 6314,
      "irman": 6315,
      "ash": 6316,
      "read": 6317,
      "hen": 6318,
      " After": 6319,
      "विधान": 6320,
      "फा": 6321,
      " long": 6322,
      " पूर्व": 6323,
      " अघि": 6324,
      "मति": 6325,
      "ular": 6326,
      " भनि": 6327,
      " Tha": 6328,
      "रुद्ध": 6329,
      "बहादुर": 6330,
      "stem": 6331,
      " उत्पादन": 6332,
      "एपछि": 6333,
      "ध्ये": 6334,
      " head": 6335,
      "राष्ट्र": 6336,
      " मत": 6337,
      "al,": 6338,
      " समूह": 6339,
      "लेको": 6340,
      " women": 6341,
      " Bank": 6342,
      " \"The": 6343,
      "olog": 6344,
      " car": 6345,
      " way": 6346,
      " :": 6347,
      " पर्य": 6348,
      "रोध": 6349,
      " बने": 6350,
      " होइन": 6351,
      "conom": 6352,
      " अन्तर्": 6353,
      " met": 6354,
      " लगानी": 6355,
      " वै": 6356,
      " If": 6357,
      " अनि": 6358,
      "ific": 6359,
      "ali": 6360,
      " अर्को": 6361,
      " तह": 6362,
      "सभा": 6363,
      " President": 6364,
      " second": 6365,
      "ged": 6366,
      " अर्थ": 6367,
      "ions": 6368,
      "पत्र": 6369,
      "दैन": 6370,
      "पु": 6371,
      " सर्व": 6372,
      "काल": 6373,
      " जारी": 6374,
      " ed": 6375,
      " इन्": 6376,
      " famil": 6377,
      " high": 6378,
      " ass": 6379,
      " hel": 6380,
      " मान": 6381,
      " Re": 6382,
      " हाम्रो": 6383,
      " At": 6384,
      " कर्म": 6385,
      " संविधान": 6386,
      " discus": 6387,
      "सक्": 6388,
      "resent": 6389,
      " गाउँपालिका": 6390,
      " pass": 6391,
      "-f": 6392,
      " Dr": 6393,
      " सम्झ": 6394,
      " समाज": 6395,
      " भेट": 6396,
      "शी": 6397,
      "ors": 6398,
      " school": 6399,
      " given": 6400,
      "ma": 6401,
      " नग": 6402,
      "यक": 6403,
      " current": 6404,
      "ya": 6405,
      "न्व": 6406,
      "ise": 6407,
      " पटक": 6408,
      "ful": 6409,
      " For": 6410,
      " most": 6411,
      " prep": 6412,
      " system": 6413,
      " बी": 6414,
      "pos": 6415,
      "form": 6416,
      " .": 6417,
      " Chief": 6418,
      " help": 6419,
      " within": 6420,
      "त्या": 6421,
      " फो": 6422,
      " पाँच": 6423,
      "ंग्रेस": 6424,
      "ठा": 6425,
      " buil": 6426,
      "ather": 6427,
      " minister": 6428,
      "uth": 6429,
      "चारी": 6430,
      "ng": 6431,
      "ock": 6432,
      "स्रो": 6433,
      " reached": 6434,
      " Ad": 6435,
      " various": 6436,
      " ord": 6437,
      " सभा": 6438,
      ",000": 6439,
      "टमा": 6440,
      " पोख": 6441,
      " business": 6442,
      " right": 6443,
      "o,": 6444,
      "ट्ट": 6445,
      " उल्लेख": 6446,
      " They": 6447,
      " become": 6448,
      "ries": 6449,
      " अधिकारी": 6450,
      "तमा": 6451,
      " बारे": 6452,
      " company": 6453,
      "दर्श": 6454,
      "बारे": 6455,
      "नुहोस्": 6456,
      " construction": 6457,
      "ecial": 6458,
      "urs": 6459,
      "नाइ": 6460,
      " eff": 6461,
      " सुरक्षा": 6462,
      " विद्या": 6463,
      "lf": 6464,
      " move": 6465,
      " अझ": 6466,
      "त्मक": 6467,
      "ished": 6468,
      "कर्ता": 6469,
      " कांग्रेस": 6470,
      "कपा": 6471,
      " Bha": 6472,
      " अभि": 6473,
      " पर्ने": 6474,
      "ly.\n": 6475,
      " proc": 6476,
      "eri": 6477,
      " different": 6478,
      "itiz": 6479,
      " pri": 6480,
      " चार": 6481,
      " चौ": 6482,
      "ेन्द्र": 6483,
      "युक्त": 6484,
      "ठन": 6485,
      " त्यहाँ": 6486,
      " नेतृ": 6487,
      " महिना": 6488,
      " demand": 6489,
      " may": 6490,
      " छु": 6491,
      " अवस्थामा": 6492,
      " 7": 6493,
      " since": 6494,
      " Municipality": 6495,
      " संक्रमण": 6496,
      "eep": 6497,
      " hospital": 6498,
      " न्य": 6499,
      "aut": 6500,
      " बन्द": 6501,
      "म्भ": 6502,
      " फि": 6503,
      " colle": 6504,
      " उद्योग": 6505,
      "ures": 6506,
      " ve": 6507,
      " क्या": 6508,
      " treat": 6509,
      " group": 6510,
      "ेड": 6511,
      "als": 6512,
      " point": 6513,
      "पो": 6514,
      " commun": 6515,
      " test": 6516,
      " मात्रै": 6517,
      "erest": 6518,
      "ल्या": 6519,
      " अन": 6520,
      "irus": 6521,
      " निक": 6522,
      "ck": 6523,
      " bl": 6524,
      " own": 6525,
      " infection": 6526,
      "gg": 6527,
      " आग": 6528,
      " Pra": 6529,
      " उच्च": 6530,
      " आएका": 6531,
      " Prov": 6532,
      " अगा": 6533,
      " कर्मचारी": 6534,
      " पानी": 6535,
      "उँदै": 6536,
      "हरूमा": 6537,
      "र्ण": 6538,
      " नेतृत्व": 6539,
      " econom": 6540,
      " rece": 6541,
      "ector": 6542,
      " social": 6543,
      "मार": 6544,
      " employ": 6545,
      " बाहि": 6546,
      "okha": 6547,
      "uk": 6548,
      " चाह": 6549,
      " कसरी": 6550,
      " मुलु": 6551,
      " Sec": 6552,
      "वरण": 6553,
      "ment.\n": 6554,
      "ave": 6555,
      "ानो": 6556,
      " Mad": 6557,
      " प्रकाश": 6558,
      " know": 6559,
      " where": 6560,
      " min": 6561,
      "ared": 6562,
      " यहाँ": 6563,
      "inc": 6564,
      " बनाउन": 6565,
      " वडा": 6566,
      " vis": 6567,
      " राज्य": 6568,
      " win": 6569,
      ")\n": 6570,
      "अनु": 6571,
      "पर": 6572,
      " thir": 6573,
      " छल": 6574,
      " plan": 6575,
      " fl": 6576,
      " says": 6577,
      " नी": 6578,
      " situ": 6579,
      " political": 6580,
      " Office": 6581,
      " writ": 6582,
      "बल": 6583,
      " सबैभन्दा": 6584,
      "me": 6585,
      " cam": 6586,
      " समयमा": 6587,
      " post": 6588,
      " don": 6589,
      " मन्त्री": 6590,
      " कति": 6591,
      " दोस्रो": 6592,
      " मेरो": 6593,
      " tour": 6594,
      "न्तर": 6595,
      " सञ्चालन": 6596,
      "त्ता": 6597,
      " विदेश": 6598,
      " साथै": 6599,
      " छलफल": 6600,
      "तर": 6601,
      " decision": 6602,
      " मूल्य": 6603,
      " दश": 6604,
      "न्,": 6605,
      " जित": 6606,
      " bo": 6607,
      " वटा": 6608,
      " परिवार": 6609,
      "र्ने": 6610,
      "धी": 6611,
      " prot": 6612,
      "राम": 6613,
      " सडक": 6614,
      "छन्।\n": 6615,
      " conc": 6616,
      "बि": 6617,
      " 201": 6618,
      " Sha": 6619,
      " १९": 6620,
      " Ministry": 6621,
      " १५": 6622,
      "ृद्धि": 6623,
      "chn": 6624,
      "iet": 6625,
      " प्रतिनि": 6626,
      "ैं": 6627,
      "रू": 6628,
      " राजनीतिक": 6629,
      " तिनी": 6630,
      "ग्रह": 6631,
      " अद": 6632,
      " श्रे": 6633,
      " \"I": 6634,
      " व्याप": 6635,
      "ork": 6636,
      " अफ": 6637,
      "ञ्ज": 6638,
      "प्रति": 6639,
      " अमेरिका": 6640,
      "समेत": 6641,
      "त्ति": 6642,
      " power": 6643,
      " Dist": 6644,
      " def": 6645,
      "ीर": 6646,
      "मित": 6647,
      "ination": 6648,
      "ancial": 6649,
      " घटना": 6650,
      " without": 6651,
      " सक्छ": 6652,
      " बताए।\n": 6653,
      " विक": 6654,
      " eight": 6655,
      "led": 6656,
      " लोक": 6657,
      " सां": 6658,
      " नेपालमा": 6659,
      " १२": 6660,
      " ann": 6661,
      " Ram": 6662,
      "ष्टि": 6663,
      " Raj": 6664,
      "ers.\n": 6665,
      "के": 6666,
      " सी": 6667,
      "agar": 6668,
      "retary": 6669,
      " interest": 6670,
      "क्षक": 6671,
      "ुवा": 6672,
      " मैले": 6673,
      " cro": 6674,
      " present": 6675,
      " happ": 6676,
      "),": 6677,
      " said.\n": 6678,
      " संख्या": 6679,
      " सामाजिक": 6680,
      " ठाउँ": 6681,
      " committee": 6682,
      " return": 6683,
      " टोली": 6684,
      " विज्ञ": 6685,
      " village": 6686,
      "udget": 6687,
      "leas": 6688,
      "ings": 6689,
      " सक्ने": 6690,
      " Cor": 6691,
      " Cent": 6692,
      " नेकपा": 6693,
      "दाय": 6694,
      "वेद": 6695,
      "ute": 6696,
      " मौ": 6697,
      " क्रममा": 6698,
      "ention": 6699,
      " हामीले": 6700,
      " Shar": 6701,
      "विधि": 6702,
      " “": 6703,
      "ason": 6704,
      " भाग": 6705,
      " रकम": 6706,
      "ोट": 6707,
      " जे": 6708,
      " read": 6709,
      " विषयमा": 6710,
      "ternational": 6711,
      "म्बर": 6712,
      "भव": 6713,
      " संक": 6714,
      " प्रव": 6715,
      "ल्लो": 6716,
      " des": 6717,
      " नेपालको": 6718,
      " look": 6719,
      " ask": 6720,
      "ment,": 6721,
      " विद्यालय": 6722,
      " भाइ": 6723,
      "तको": 6724,
      "शु": 6725,
      " पढ": 6726,
      "ेन्ट": 6727,
      "sible": 6728,
      "न्ट": 6729,
      "र्फत": 6730,
      " संर": 6731,
      " सहभाग": 6732,
      "नुहुन्छ": 6733,
      "air": 6734,
      "soci": 6735,
      " issu": 6736,
      "-y": 6737,
      " भइरहेको": 6738,
      "जग": 6739,
      " तयारी": 6740,
      "ern": 6741,
      " fif": 6742,
      " District": 6743,
      "बर": 6744,
      "घा": 6745,
      "स्ताव": 6746,
      "cent": 6747,
      " ११": 6748,
      "ey": 6749,
      " पी": 6750,
      "वल": 6751,
      " vi": 6752,
      " उपल": 6753,
      " भु": 6754,
      "atives": 6755,
      " बजेट": 6756,
      "orn": 6757,
      " विद्यार्थ": 6758,
      " rupees": 6759,
      " home": 6760,
      " budget": 6761,
      "-year": 6762,
      " pay": 6763,
      "ten": 6764,
      "सन्": 6765,
      " arrest": 6766,
      " Province": 6767,
      " खे": 6768,
      "डेल": 6769,
      " vot": 6770,
      "ेपछि": 6771,
      " done": 6772,
      " उपा": 6773,
      " कार": 6774,
      " सफल": 6775,
      "ie": 6776,
      " art": 6777,
      " million": 6778,
      " निर्वाचन": 6779,
      " बताएका": 6780,
      " लक्ष": 6781,
      "oot": 6782,
      " पि": 6783,
      " New": 6784,
      " क्र": 6785,
      " these": 6786,
      " national": 6787,
      "लब": 6788,
      " अदाल": 6789,
      "ese": 6790,
      " National": 6791,
      " खर्च": 6792,
      "धारण": 6793,
      " मानिस": 6794,
      "ele": 6795,
      "वर्त": 6796,
      " seen": 6797,
      " financial": 6798,
      "व्य": 6799,
      " Bh": 6800,
      "mit": 6801,
      " With": 6802,
      " est": 6803,
      "ines": 6804,
      " polic": 6805,
      " billion": 6806,
      " Pokha": 6807,
      ":\n": 6808,
      " corona": 6809,
      " अर्ब": 6810,
      "ourn": 6811,
      "पनि": 6812,
      "ुल": 6813,
      " नियन्त्र": 6814,
      " कृष": 6815,
      " रे": 6816,
      " पाइ": 6817,
      " sign": 6818,
      " हुँदा": 6819,
      " तयार": 6820,
      "ature": 6821,
      " cust": 6822,
      "गरी": 6823,
      " स्प": 6824,
      " end": 6825,
      " fol": 6826,
      " पक्र": 6827,
      "दो": 6828,
      " Indian": 6829,
      "एन": 6830,
      " ear": 6831,
      " children": 6832,
      "undred": 6833,
      " much": 6834,
      "षा": 6835,
      " अधिक": 6836,
      " str": 6837,
      " few": 6838,
      " Kha": 6839,
      " उपलब्": 6840,
      "ecess": 6841,
      "डियो": 6842,
      "ेरि": 6843,
      " एमाले": 6844,
      "एस": 6845,
      "अनुसार": 6846,
      " नहु": 6847,
      " राष्ट्रपति": 6848,
      " Dep": 6849,
      " घोष": 6850,
      " प्रत्य": 6851,
      " contro": 6852,
      " गर्छ": 6853,
      " use": 6854,
      " respon": 6855,
      "ush": 6856,
      " gr": 6857,
      " law": 6858,
      " श्रेष्ठ": 6859,
      "...": 6860,
      "ee": 6861,
      "लाइ": 6862,
      " indust": 6863,
      " year.\n": 6864,
      "तम": 6865,
      " occ": 6866,
      " पुर": 6867,
      " memb": 6868,
      "-p": 6869,
      " पै": 6870,
      " You": 6871,
      "ल्ला": 6872,
      "राष्ट्रिय": 6873,
      " cle": 6874,
      " प्रहरीले": 6875,
      " leader": 6876,
      "नले": 6877,
      "ers,": 6878,
      " प्रक्रिया": 6879,
      "-1": 6880,
      " eas": 6881,
      " bro": 6882,
      "लग": 6883,
      " अस": 6884,
      "तर्फ": 6885,
      " अगाडि": 6886,
      " प्रस्ताव": 6887,
      " पक्राउ": 6888,
      " जनता": 6889,
      " lar": 6890,
      " सामान्य": 6891,
      " समु": 6892,
      " तत्": 6893,
      " जीवन": 6894,
      " service": 6895,
      "र्मा": 6896,
      " पद": 6897,
      " project": 6898,
      "गम": 6899,
      "गायत": 6900,
      " थापा": 6901,
      " che": 6902,
      "oud": 6903,
      "सन्धान": 6904,
      " citiz": 6905,
      " जब": 6906,
      " came": 6907,
      "त्रा": 6908,
      "झा": 6909,
      " contin": 6910,
      " name": 6911,
      " आयोग": 6912,
      " स्ट": 6913,
      "ss": 6914,
      " cre": 6915,
      " educ": 6916,
      " 9": 6917,
      "umar": 6918,
      " No": 6919,
      " before": 6920,
      " नीति": 6921,
      " आउने": 6922,
      "नुभएको": 6923,
      " छि": 6924,
      "urity": 6925,
      " constitution": 6926,
      " डे": 6927,
      " नियन्त्रण": 6928,
      " गर्नुपर्ने": 6929,
      "sib": 6930,
      " show": 6931,
      " US": 6932,
      " Nepal.\n": 6933,
      "ration": 6934,
      " ext": 6935,
      " लागेको": 6936,
      " परेको": 6937,
      " अनुसन्धान": 6938,
      " hundred": 6939,
      "restha": 6940,
      "कृति": 6941,
      " लामो": 6942,
      " परीक्षण": 6943,
      "ंश": 6944,
      "ामी": 6945,
      " po": 6946,
      " week": 6947,
      "वाह": 6948,
      " foreign": 6949,
      " ऐ": 6950,
      "दे": 6951,
      " house": 6952,
      " Shrestha": 6953,
      "omet": 6954,
      " time,": 6955,
      " परिवर्त": 6956,
      " पूर्ण": 6957,
      " here": 6958,
      " प्रदान": 6959,
      " plac": 6960,
      " ५०": 6961,
      " गरिने": 6962,
      " बारेमा": 6963,
      "lished": 6964,
      " करि": 6965,
      " working": 6966,
      " Part": 6967,
      " days": 6968,
      " फिल्": 6969,
      " पुगेको": 6970,
      " And": 6971,
      " just": 6972,
      " जाने": 6973,
      " भएपछि": 6974,
      " पौ": 6975,
      "छा": 6976,
      " संसद": 6977,
      " हर": 6978,
      " imp": 6979,
      " Mon": 6980,
      " capital": 6981,
      " छैन।\n": 6982,
      " आरो": 6983,
      "ris": 6984,
      "ruct": 6985,
      " भारतीय": 6986,
      " mod": 6987,
      " श्री": 6988,
      "ाल्": 6989,
      " त्यसैले": 6990,
      " ’": 6991,
      "plement": 6992,
      " det": 6993,
      " process": 6994,
      " हो,": 6995,
      "र्स": 6996,
      "हरुमा": 6997,
      " aff": 6998,
      " यदि": 6999,
      "erm": 7000,
      " Sup": 7001,
      " बनाउने": 7002,
      " गएको": 7003,
      "ars": 7004,
      " विभाग": 7005,
      " Dr.": 7006,
      " महान": 7007,
      "ecessary": 7008,
      " शिक्षा": 7009,
      "ving": 7010,
      " उहाँले": 7011,
      "ah": 7012,
      " देखिएको": 7013,
      " Tr": 7014,
      " भन्छ": 7015,
      "eration": 7016,
      "यात": 7017,
      "ोधन": 7018,
      " Sat": 7019,
      "ृत": 7020,
      "रक": 7021,
      " Jan": 7022,
      "ator": 7023,
      " भएर": 7024,
      "tle": 7025,
      "स्क": 7026,
      "gun": 7027,
      " संक्रमित": 7028,
      "iday": 7029,
      " lo": 7030,
      " called": 7031,
      "नाव": 7032,
      " exam": 7033,
      " requ": 7034,
      "aid": 7035,
      " ob": 7036,
      " ब्या": 7037,
      " 15": 7038,
      " घोषणा": 7039,
      " Nepal,": 7040,
      " activ": 7041,
      "मिक": 7042,
      "ored": 7043,
      "ried": 7044,
      " जोड": 7045,
      " trad": 7046,
      "साद": 7047,
      "aim": 7048,
      " उद्": 7049,
      "ग्री": 7050,
      " general": 7051,
      " Sing": 7052,
      " mone": 7053,
      " सम्पन्न": 7054,
      "here": 7055,
      " lit": 7056,
      "ices": 7057,
      " कार्यक्रममा": 7058,
      "-old": 7059,
      "hic": 7060,
      "minist": 7061,
      "ion.\n": 7062,
      " न्या": 7063,
      " ,": 7064,
      " techn": 7065,
      " किस": 7066,
      " Now": 7067,
      " द्व": 7068,
      " sector": 7069,
      " युवा": 7070,
      "uman": 7071,
      "धिका": 7072,
      "यी": 7073,
      "ML": 7074,
      "न्दो": 7075,
      " inter": 7076,
      "a's": 7077,
      " सचिव": 7078,
      "eng": 7079,
      "eptember": 7080,
      "िकी": 7081,
      " follow": 7082,
      " implement": 7083,
      "eld": 7084,
      "ulture": 7085,
      " sur": 7086,
      " parties": 7087,
      "ug": 7088,
      " त्यसपछि": 7089,
      " fac": 7090,
      " Chairman": 7091,
      " हुनेछ": 7092,
      " press": 7093,
      " यसलाई": 7094,
      " vac": 7095,
      "asad": 7096,
      "irl": 7097,
      "दार": 7098,
      " She": 7099,
      " लगायत": 7100,
      " back": 7101,
      " farm": 7102,
      "थ्यो": 7103,
      "र्जा": 7104,
      " September": 7105,
      " event": 7106,
      " it.\n": 7107,
      " custom": 7108,
      " stop": 7109,
      "ष्ण": 7110,
      " खेला": 7111,
      " प्रतिनिधि": 7112,
      " अध्ययन": 7113,
      "्वास": 7114,
      " increase": 7115,
      " भो": 7116,
      "AN": 7117,
      "तले": 7118,
      "ल्प": 7119,
      " prof": 7120,
      " बैठक": 7121,
      " because": 7122,
      "tain": 7123,
      "नका": 7124,
      " took": 7125,
      "ion,": 7126,
      "ured": 7127,
      " 100": 7128,
      " allow": 7129,
      "an,": 7130,
      "az": 7131,
      " died": 7132,
      "च्छ": 7133,
      " amount": 7134,
      " फै": 7135,
      "itive": 7136,
      " see": 7137,
      "च्चा": 7138,
      " underst": 7139,
      "endra": 7140,
      " बाहिर": 7141,
      " next": 7142,
      "जे": 7143,
      " पछिल्लो": 7144,
      " Sund": 7145,
      " support": 7146,
      " गति": 7147,
      " ई": 7148,
      "यो।\n": 7149,
      " both": 7150,
      " chief": 7151,
      " give": 7152,
      " भित्र": 7153,
      " दिएका": 7154,
      "द्दा": 7155,
      " Le": 7156,
      " प्रदर्श": 7157,
      " जु": 7158,
      "माथि": 7159,
      " match": 7160,
      "-year-old": 7161,
      " लु": 7162,
      "कर्ष": 7163,
      " भाइर": 7164,
      "olution": 7165,
      " percent": 7166,
      " ful": 7167,
      " according": 7168,
      " दुवै": 7169,
      "lish": 7170,
      " छन": 7171,
      " Ass": 7172,
      " ph": 7173,
      " भएकाले": 7174,
      " २०१": 7175,
      " गीत": 7176,
      " सांसद": 7177,
      " put": 7178,
      " अझै": 7179,
      " receiv": 7180,
      " बताउ": 7181,
      " प्रश्न": 7182,
      " em": 7183,
      " institution": 7184,
      " this,": 7185,
      " hour": 7186,
      "ैनिक": 7187,
      "ata": 7188,
      "हाल": 7189,
      " price": 7190,
      " यस्तै": 7191,
      " remain": 7192,
      " अभिय": 7193,
      " gu": 7194,
      "न्ने": 7195,
      "ndra": 7196,
      " sent": 7197,
      " सरकारको": 7198,
      " releas": 7199,
      " agree": 7200,
      "मध्ये": 7201,
      " विद्यार्थी": 7202,
      " Rep": 7203,
      " necessary": 7204,
      " केन्द्रीय": 7205,
      " उपलब्ध": 7206,
      "ces": 7207,
      " condu": 7208,
      "स्तार": 7209,
      " एव": 7210,
      " Go": 7211,
      "ारि": 7212,
      "ल्ने": 7213,
      "ेयर": 7214,
      "वर": 7215,
      "rought": 7216,
      " सम्झौ": 7217,
      "ics": 7218,
      "pl": 7219,
      " claim": 7220,
      " गर्दछ": 7221,
      "ale": 7222,
      "र्ज": 7223,
      " फिल्म": 7224,
      "यम": 7225,
      " –": 7226,
      " दुर्": 7227,
      " special": 7228,
      " फाइ": 7229,
      "त्वपूर्ण": 7230,
      " योग": 7231,
      " parliament": 7232,
      " media": 7233,
      "ask": 7234,
      "ized": 7235,
      "ishn": 7236,
      " quest": 7237,
      " half": 7238,
      "ालिका": 7239,
      " मलाई": 7240,
      " What": 7241,
      "nce": 7242,
      " time.\n": 7243,
      " pur": 7244,
      " stand": 7245,
      " फा": 7246,
      " ट्र": 7247,
      " decided": 7248,
      " ग्र": 7249,
      "लगायत": 7250,
      " \"W": 7251,
      " प्रया": 7252,
      " २५": 7253,
      " भनाइ": 7254,
      " रोग": 7255,
      " seven": 7256,
      " लिन": 7257,
      " villag": 7258,
      "hile": 7259,
      " त्यस्तै": 7260,
      " down": 7261,
      " वर्षको": 7262,
      " increased": 7263,
      " food": 7264,
      " important": 7265,
      " उठ": 7266,
      " गोल": 7267,
      "ional": 7268,
      "ani": 7269,
      " information": 7270,
      " life": 7271,
      " प्रशा": 7272,
      "चाल": 7273,
      " members": 7274,
      " member": 7275,
      " prom": 7276,
      " कृषि": 7277,
      " मुद्दा": 7278,
      " fed": 7279,
      "परि": 7280,
      "line": 7281,
      "edn": 7282,
      " व्यवस्थापन": 7283,
      "erg": 7284,
      "ity.\n": 7285,
      "लिक": 7286,
      " म्या": 7287,
      "ired": 7288,
      " old": 7289,
      " कार्या": 7290,
      " another": 7291,
      " mar": 7292,
      " arrested": 7293,
      " still": 7294,
      " चल": 7295,
      " particip": 7296,
      " फर्": 7297,
      "सिक": 7298,
      " थाहा": 7299,
      "काली": 7300,
      " गरा": 7301,
      " effect": 7302,
      " बस्ने": 7303,
      " United": 7304,
      " among": 7305,
      " जन्": 7306,
      "मारी": 7307,
      "लव": 7308,
      " along": 7309,
      " १४": 7310,
      "ouse": 7311,
      "vious": 7312,
      "lood": 7313,
      " पूरा": 7314,
      " निकै": 7315,
      " area": 7316,
      " brought": 7317,
      " coming": 7318,
      " Hospital": 7319,
      " चरण": 7320,
      "uty": 7321,
      " sing": 7322,
      " consid": 7323,
      " ris": 7324,
      "चित्र": 7325,
      " body": 7326,
      "ednesday": 7327,
      "ची": 7328,
      "्ले": 7329,
      "gin": 7330,
      "ivers": 7331,
      " action": 7332,
      " song": 7333,
      "ियन": 7334,
      " चाल": 7335,
      "cept": 7336,
      "ओवादी": 7337,
      " यसले": 7338,
      " कानु": 7339,
      " सोम": 7340,
      " making": 7341,
      "ेकी": 7342,
      "तरण": 7343,
      " संस्": 7344,
      "uw": 7345,
      " death": 7346,
      " ten": 7347,
      " Coron": 7348,
      " Kumar": 7349,
      " शक्ति": 7350,
      "AT": 7351,
      " प्रण": 7352,
      " leg": 7353,
      " situation": 7354,
      " That": 7355,
      " उनलाई": 7356,
      "तो": 7357,
      " तथ": 7358,
      " air": 7359,
      " Me": 7360,
      " आन्दो": 7361,
      "avirus": 7362,
      " Wednesday": 7363,
      "ters": 7364,
      " स्थानमा": 7365,
      "ेम": 7366,
      "पटक": 7367,
      " ज्": 7368,
      "its": 7369,
      " 19": 7370,
      "artment": 7371,
      " Development": 7372,
      "iod": 7373,
      " आधारमा": 7374,
      " adv": 7375,
      " सम्भाव": 7376,
      " year,": 7377,
      "जो": 7378,
      " talk": 7379,
      " small": 7380,
      "पक्ष": 7381,
      " सरकारी": 7382,
      ").\n": 7383,
      " पहिले": 7384,
      " भ्रम": 7385,
      "विधा": 7386,
      " ज्ञ": 7387,
      "ib": 7388,
      "म्मे": 7389,
      "राई": 7390,
      " हरेक": 7391,
      " vehic": 7392,
      " !\n": 7393,
      " डा.": 7394,
      "iss": 7395,
      " central": 7396,
      "ल्क": 7397,
      "imal": 7398,
      "क्रमण": 7399,
      "टल": 7400,
      " १३": 7401,
      " kill": 7402,
      "ध्यक्ष": 7403,
      " Monday": 7404,
      "oist": 7405,
      "न्तिम": 7406,
      "espite": 7407,
      " राख्": 7408,
      "teen": 7409,
      " let": 7410,
      "sibility": 7411,
      "self": 7412,
      "ressed": 7413,
      "तिहा": 7414,
      "-t": 7415,
      "ंह": 7416,
      "कृत": 7417,
      "rel": 7418,
      " seem": 7419,
      " गर्नुहोस्": 7420,
      " परिवर्तन": 7421,
      " ३०": 7422,
      " won": 7423,
      " साल": 7424,
      " 11": 7425,
      "–१": 7426,
      " CP": 7427,
      "धु": 7428,
      "लामा": 7429,
      "डान": 7430,
      " elect": 7431,
      " manage": 7432,
      "ended": 7433,
      "lain": 7434,
      "ructure": 7435,
      "por": 7436,
      "ange": 7437,
      "orld": 7438,
      " सूचना": 7439,
      " अन्तिम": 7440,
      " family": 7441,
      "भिड": 7442,
      " areas": 7443,
      " Health": 7444,
      " पत्रकार": 7445,
      " hom": 7446,
      " सर्": 7447,
      "uthority": 7448,
      "ते": 7449,
      " कार्यान्व": 7450,
      " Sunday": 7451,
      " av": 7452,
      " जनाको": 7453,
      "ृह": 7454,
      " भनेको": 7455,
      "al.\n": 7456,
      " ध्यान": 7457,
      " distrib": 7458,
      " result": 7459,
      " bring": 7460,
      "-s": 7461,
      " कर": 7462,
      "प्रसाद": 7463,
      "सम्": 7464,
      " security": 7465,
      " रोजग": 7466,
      " सकिन्छ": 7467,
      " building": 7468,
      "्ना": 7469,
      "iate": 7470,
      " अमेरिकी": 7471,
      " शुक्र": 7472,
      " निर": 7473,
      "inance": 7474,
      "दर": 7475,
      " काठमाडौँ": 7476,
      "atic": 7477,
      " around": 7478,
      " आग्रह": 7479,
      "ुरुष": 7480,
      " keep": 7481,
      "लले": 7482,
      " top": 7483,
      " Sharma": 7484,
      " rul": 7485,
      "साइ": 7486,
      " reach": 7487,
      " स्थापना": 7488,
      " So": 7489,
      "सका": 7490,
      "urday": 7491,
      " टा": 7492,
      " बिहान": 7493,
      " जस्तो": 7494,
      " provide": 7495,
      "िता": 7496,
      "तिमा": 7497,
      "नाले": 7498,
      "ts": 7499,
      " World": 7500,
      " cond": 7501,
      " ward": 7502,
      "ham": 7503,
      "ised": 7504,
      " विद्यु": 7505,
      " यही": 7506,
      " possible": 7507,
      " sk": 7508,
      " opp": 7509,
      " प्रच": 7510,
      " दक्ष": 7511,
      "eni": 7512,
      " 30": 7513,
      "थे": 7514,
      " period": 7515,
      "ंगल": 7516,
      "adi": 7517,
      " बढ्": 7518,
      " official": 7519,
      " taking": 7520,
      " खेलाडी": 7521,
      "ying": 7522,
      "-m": 7523,
      " Pre": 7524,
      "ally": 7525,
      " प्रतियोग": 7526,
      " case": 7527,
      " प्रणाली": 7528,
      "ness": 7529,
      " Saturday": 7530,
      "ield": 7531,
      " rest": 7532,
      "तिर": 7533,
      " अन्तर्राष्ट्रिय": 7534,
      " \"\"\n": 7535,
      " _": 7536,
      " स्वी": 7537,
      " visit": 7538,
      "वान": 7539,
      " नभएको": 7540,
      "न।\n": 7541,
      " खेलमा": 7542,
      " लिएर": 7543,
      " discussion": 7544,
      " list": 7545,
      " कार्": 7546,
      "णी": 7547,
      " तपाईंको": 7548,
      " coronavirus": 7549,
      " succ": 7550,
      " बिक": 7551,
      " municipality": 7552,
      "ought": 7553,
      "गो": 7554,
      "कुमार": 7555,
      " char": 7556,
      "क्षित": 7557,
      " itself": 7558,
      " vacc": 7559,
      " each": 7560,
      " शर्मा": 7561,
      "rap": 7562,
      " सन्द": 7563,
      "ar,": 7564,
      "ल्न": 7565,
      " पौडेल": 7566,
      " मान्छ": 7567,
      " करिब": 7568,
      "com": 7569,
      "नेट": 7570,
      " हुनु": 7571,
      "त्री": 7572,
      " Commission": 7573,
      " don't": 7574,
      " पुरुष": 7575,
      "idence": 7576,
      " सहमति": 7577,
      " pop": 7578,
      " बीच": 7579,
      "ेज": 7580,
      " countries": 7581,
      " Friday": 7582,
      " economic": 7583,
      " Committee": 7584,
      " वितरण": 7585,
      " व्यापार": 7586,
      " यसै": 7587,
      " हेर्": 7588,
      " redu": 7589,
      " दू": 7590,
      "outh": 7591,
      "दिन": 7592,
      " तो": 7593,
      " अभियान": 7594,
      "मिका": 7595,
      "ering": 7596,
      " सम्झौता": 7597,
      "रत": 7598,
      "चित": 7599,
      " Ex": 7600,
      "ped": 7601,
      " General": 7602,
      "श्चिम": 7603,
      "umb": 7604,
      " स्रो": 7605,
      " १८": 7606,
      "ङ्क": 7607,
      " equ": 7608,
      "विरुद्ध": 7609,
      " court": 7610,
      " investig": 7611,
      " थाले": 7612,
      " परेका": 7613,
      " गौ": 7614,
      "जित": 7615,
      " आफ्नै": 7616,
      "hatt": 7617,
      "द्वार": 7618,
      " why": 7619,
      " tem": 7620,
      " अवधि": 7621,
      " product": 7622,
      " prepar": 7623,
      " १६": 7624,
      "ढी": 7625,
      " मानव": 7626,
      " बाँकी": 7627,
      " saying": 7628,
      " went": 7629,
      "ध्यम": 7630,
      " estab": 7631,
      " अधिकार": 7632,
      "paign": 7633,
      " incident": 7634,
      "embly": 7635,
      "स्थिति": 7636,
      " पैसा": 7637,
      "दू": 7638,
      " Poud": 7639,
      " Tu": 7640,
      "n't": 7641,
      "इन्": 7642,
      ",’": 7643,
      " MP": 7644,
      "ropol": 7645,
      " बनेको": 7646,
      "उनु": 7647,
      " adding": 7648,
      " आमा": 7649,
      " Sp": 7650,
      " बुध": 7651,
      "resentatives": 7652,
      " कै": 7653,
      " treatment": 7654,
      "aged": 7655,
      " देउ": 7656,
      " दर": 7657,
      "ursday": 7658,
      " House": 7659,
      " जस्तै": 7660,
      "क्टर": 7661,
      " निर्देशन": 7662,
      "cy": 7663,
      " night": 7664,
      " घण्": 7665,
      " बताउँ": 7666,
      " societ": 7667,
      " पठ": 7668,
      " mother": 7669,
      " workers": 7670,
      "mediate": 7671,
      "आर": 7672,
      " प्रकार": 7673,
      " छ ।\n": 7674,
      " China": 7675,
      " fri": 7676,
      " बच्चा": 7677,
      " सुविधा": 7678,
      " चलचित्र": 7679,
      "घट": 7680,
      " आइत": 7681,
      " टि": 7682,
      " friend": 7683,
      " अति": 7684,
      " हुन्।\n": 7685,
      " ben": 7686,
      "action": 7687,
      "iron": 7688,
      "ious": 7689,
      "वास": 7690,
      " कारो": 7691,
      " develop": 7692,
      " सोच": 7693,
      "down": 7694,
      " शुरु": 7695,
      " money": 7696,
      " Bar": 7697,
      " सहभागी": 7698,
      " Thursday": 7699,
      "डो": 7700,
      " crore": 7701,
      "विद्य": 7702,
      "पको": 7703,
      " कला": 7704,
      "धे": 7705,
      " हुन्छ।\n": 7706,
      " Poudel": 7707,
      " निकाय": 7708,
      " former": 7709,
      " journ": 7710,
      " जसले": 7711,
      " मै": 7712,
      " प्रयास": 7713,
      "सकेका": 7714,
      "reme": 7715,
      "विक": 7716,
      " पाउने": 7717,
      " पर्यटक": 7718,
      "fic": 7719,
      "तार": 7720,
      " चला": 7721,
      " आई": 7722,
      " understand": 7723,
      " टु": 7724,
      " 200": 7725,
      "earch": 7726,
      " नम्बर": 7727,
      " टे": 7728,
      "भू": 7729,
      " आफ्ना": 7730,
      " Court": 7731,
      " प्रवेश": 7732,
      "land": 7733,
      " city": 7734,
      " बढेको": 7735,
      " विश्वास": 7736,
      "ream": 7737,
      " बलि": 7738,
      " सीमा": 7739,
      " big": 7740,
      "emic": 7741,
      "राब": 7742,
      " तिम": 7743,
      " away": 7744,
      " वृद्धि": 7745,
      " provid": 7746,
      " साँ": 7747,
      "20": 7748,
      " pati": 7749,
      " mater": 7750,
      " har": 7751,
      "स्व": 7752,
      "श्व": 7753,
      " liv": 7754,
      " past": 7755,
      "ounc": 7756,
      "tal": 7757,
      " आगामी": 7758,
      " चर्च": 7759,
      "vate": 7760,
      " पदा": 7761,
      " maj": 7762,
      "कर्म": 7763,
      " फेरि": 7764,
      " गरिरहेको": 7765,
      " ओलीले": 7766,
      " basis": 7767,
      " train": 7768,
      " आँ": 7769,
      "ner": 7770,
      " न्यू": 7771,
      "eas": 7772,
      "नाको": 7773,
      " hist": 7774,
      " सात": 7775,
      " citizens": 7776,
      " विवाद": 7777,
      " ग्रा": 7778,
      "लाइन": 7779,
      " ur": 7780,
      "ahal": 7781,
      "वेदन": 7782,
      " बाटो": 7783,
      "श्चित": 7784,
      " धा": 7785,
      " शै": 7786,
      " large": 7787,
      " गण": 7788,
      " tax": 7789,
      " छौं": 7790,
      " त्यही": 7791,
      " गरे।\n": 7792,
      " Bir": 7793,
      " Tuesday": 7794,
      " दृ": 7795,
      "ultural": 7796,
      " दर्ता": 7797,
      "used": 7798,
      " received": 7799,
      "किएको": 7800,
      " भट्ट": 7801,
      " भण्ड": 7802,
      " students": 7803,
      " One": 7804,
      " Com": 7805,
      "though": 7806,
      " २४": 7807,
      " ऋ": 7808,
      " विस्तार": 7809,
      "लेर": 7810,
      " May": 7811,
      " left": 7812,
      "टै": 7813,
      " country.\n": 7814,
      " सहज": 7815,
      "erc": 7816,
      "हेक": 7817,
      " When": 7818,
      " याद": 7819,
      " inj": 7820,
      " vict": 7821,
      " control": 7822,
      " गुरु": 7823,
      " फुट": 7824,
      " विचार": 7825,
      " Is": 7826,
      " Bhatt": 7827,
      "रामी": 7828,
      " Te": 7829,
      "एम": 7830,
      " immediate": 7831,
      " भ्रमण": 7832,
      " क्षम": 7833,
      "प्ता": 7834,
      "सक्ने": 7835,
      " lock": 7836,
      " Party": 7837,
      " Gur": 7838,
      " Nepal's": 7839,
      " inst": 7840,
      " problems": 7841,
      " Tw": 7842,
      " Thapa": 7843,
      " प्रस्तु": 7844,
      " भूमिका": 7845,
      " एस": 7846,
      "wards": 7847,
      " book": 7848,
      " विमान": 7849,
      " त्यसको": 7850,
      " young": 7851,
      " छन्,": 7852,
      "DU": 7853,
      " Sam": 7854,
      "ालि": 7855,
      " सुधार": 7856,
      "hu": 7857,
      "chand": 7858,
      "ont": 7859,
      " जिम्मे": 7860,
      "कड": 7861,
      " माओवादी": 7862,
      " vide": 7863,
      "बद्ध": 7864,
      " रहने": 7865,
      " बहु": 7866,
      "-b": 7867,
      "estiv": 7868,
      " सोमबार": 7869,
      " घण्टा": 7870,
      "o.\n": 7871,
      " compet": 7872,
      " reported": 7873,
      " देखा": 7874,
      "ross": 7875,
      " देखिन्छ": 7876,
      "ready": 7877,
      " यसअघि": 7878,
      "-c": 7879,
      " third": 7880,
      " लागी": 7881,
      " खोज": 7882,
      "निर्": 7883,
      "ilit": 7884,
      " \"A": 7885,
      " Ag": 7886,
      " became": 7887,
      "ैँ": 7888,
      "ending": 7889,
      "HM": 7890,
      " फरक": 7891,
      " condition": 7892,
      "्यू": 7893,
      " news": 7894,
      " प्रो": 7895,
      " spe": 7896,
      " val": 7897,
      " best": 7898,
      "eric": 7899,
      " उनका": 7900,
      " शनि": 7901,
      " campaign": 7902,
      "rying": 7903,
      "enty": 7904,
      "ANDU": 7905,
      "ling": 7906,
      "ATHM": 7907,
      "क्का": 7908,
      "ies.\n": 7909,
      " order": 7910,
      "लर": 7911,
      "ATHMANDU": 7912,
      " मुलुक": 7913,
      " unt": 7914,
      " KATHMANDU": 7915,
      " must": 7916,
      " already": 7917,
      "ecut": 7918,
      " छोरा": 7919,
      " नेपालले": 7920,
      " कोभिड": 7921,
      " समाचार": 7922,
      "ग्गा": 7923,
      " अरु": 7924,
      " propos": 7925,
      "ants": 7926,
      "जक": 7927,
      " continu": 7928,
      "कालीन": 7929,
      " init": 7930,
      " जोख": 7931,
      "संघ": 7932,
      " .\n": 7933,
      " forward": 7934,
      "ges": 7935,
      " संयुक्त": 7936,
      " CPN": 7937,
      " सवारी": 7938,
      " girl": 7939,
      "ference": 7940,
      " announ": 7941,
      " administ": 7942,
      " material": 7943,
      " success": 7944,
      " international": 7945,
      " great": 7946,
      " गि": 7947,
      "ुरो": 7948,
      " lot": 7949,
      " एवं": 7950,
      " वर्षीय": 7951,
      "olved": 7952,
      " दक्षि": 7953,
      " रूप": 7954,
      "ala": 7955,
      " dra": 7956,
      "शील": 7957,
      "रिया": 7958,
      " think": 7959,
      " आउँ": 7960,
      " जीव": 7961,
      " cand": 7962,
      " years.\n": 7963,
      " Commun": 7964,
      "ढा": 7965,
      " एन": 7966,
      " short": 7967,
      "रीको": 7968,
      "urance": 7969,
      " Sun": 7970,
      " समाधान": 7971,
      "पानी": 7972,
      "otel": 7973,
      " चाहि": 7974,
      " asked": 7975,
      "br": 7976,
      "ball": 7977,
      "ficult": 7978,
      "ublished": 7979,
      "मा,": 7980,
      "wan": 7981,
      " विरोध": 7982,
      " सकिने": 7983,
      " care": 7984,
      "augh": 7985,
      " होला": 7986,
      "ies,": 7987,
      " कारोबार": 7988,
      " mus": 7989,
      " infected": 7990,
      " क्लब": 7991,
      " शुक्रबार": 7992,
      " आइतबार": 7993,
      "ient": 7994,
      " \"H": 7995,
      " oppos": 7996,
      "शि": 7997,
      "go": 7998,
      " रहे": 7999,
      "द्वारा": 8000,
      " आरोप": 8001,
      "mi": 8002,
      "फो": 8003,
      " los": 8004,
      "ife": 8005,
      " leadership": 8006,
      " बर्ष": 8007,
      " clos": 8008,
      " sal": 8009,
      "my": 8010,
      " खरि": 8011,
      " role": 8012,
      " १७": 8013,
      " human": 8014,
      "लै": 8015,
      " lost": 8016,
      " निजी": 8017,
      "हन": 8018,
      " मान्छे": 8019,
      " total": 8020,
      " Pokhara": 8021,
      "ets": 8022,
      " नजिक": 8023,
      " account": 8024,
      " बाट": 8025,
      " पोखरा": 8026,
      " class": 8027,
      " difficult": 8028,
      "ined": 8029,
      " del": 8030,
      " ref": 8031,
      " cr": 8032,
      "इँ": 8033,
      " Associ": 8034,
      " स्पष्ट": 8035,
      " प्रत्येक": 8036,
      " arr": 8037,
      "सलाई": 8038,
      " मंगल": 8039,
      " Home": 8040,
      " risk": 8041,
      " Lam": 8042,
      " लक्ष्य": 8043,
      " scored": 8044,
      " खाने": 8045,
      " Cl": 8046,
      " consum": 8047,
      "idd": 8048,
      " जोखिम": 8049,
      "म्मा": 8050,
      " Fed": 8051,
      "ब्द": 8052,
      " cost": 8053,
      " बच": 8054,
      " दैनिक": 8055,
      "leg": 8056,
      "ity,": 8057,
      " positive": 8058,
      " stay": 8059,
      " बजारमा": 8060,
      " संघीय": 8061,
      "inal": 8062,
      "ouncil": 8063,
      " द्वारा": 8064,
      "जर": 8065,
      " पुनः": 8066,
      "पक": 8067,
      " hig": 8068,
      " div": 8069,
      "rick": 8070,
      " केहि": 8071,
      "ency": 8072,
      " coord": 8073,
      " policy": 8074,
      " men": 8075,
      " तेस": 8076,
      " यस्ता": 8077,
      " reason": 8078,
      " months": 8079,
      " private": 8080,
      " field": 8081,
      " पर्यटन": 8082,
      " rate": 8083,
      "ari,": 8084,
      "्युनि": 8085,
      " प्रकाशित": 8086,
      " tre": 8087,
      " Maha": 8088,
      "ल,": 8089,
      "रिका": 8090,
      " Ne": 8091,
      " तत्काल": 8092,
      "म्मेद": 8093,
      " खरिद": 8094,
      "ified": 8095,
      " भर्": 8096,
      "यार": 8097,
      "२०": 8098,
      " beli": 8099,
      " भिडियो": 8100,
      "hal": 8101,
      "aun": 8102,
      " discuss": 8103,
      " कम्पनीले": 8104,
      "तावरण": 8105,
      " eng": 8106,
      " बुधबार": 8107,
      " turn": 8108,
      "aff": 8109,
      "र्जन": 8110,
      " जग्गा": 8111,
      "enior": 8112,
      "कृतिक": 8113,
      "णि": 8114,
      " cert": 8115,
      "raj": 8116,
      " दी": 8117,
      " quar": 8118,
      "gr": 8119,
      " सानो": 8120,
      " begin": 8121,
      " दाबी": 8122,
      "ेलि": 8123,
      "ैर": 8124,
      "ंगा": 8125,
      " हात": 8126,
      " fact": 8127,
      " democ": 8128,
      "war": 8129,
      " exc": 8130,
      "not": 8131,
      "udd": 8132,
      " candid": 8133,
      "ways": 8134,
      " perform": 8135,
      " तेस्रो": 8136,
      " सम्भावना": 8137,
      " सुन": 8138,
      "षण": 8139,
      " गुण": 8140,
      " Act": 8141,
      "दछ": 8142,
      "कार्य": 8143,
      " matter": 8144,
      " उम्मेद": 8145,
      "ology": 8146,
      " जल": 8147,
      " समुदाय": 8148,
      "i.\n": 8149,
      " कहिले": 8150,
      " Mar": 8151,
      " प्रेम": 8152,
      ".\"": 8153,
      "ँड": 8154,
      ";\n": 8155,
      " सहित": 8156,
      " वे": 8157,
      " यात्रा": 8158,
      "ayan": 8159,
      " Parliament": 8160,
      " औष": 8161,
      "ताका": 8162,
      " वातावरण": 8163,
      "hang": 8164,
      " ऊ": 8165,
      " complain": 8166,
      " सर्वो": 8167,
      " यति": 8168,
      " KATHMANDU:": 8169,
      " निम्": 8170,
      "द्धा": 8171,
      "हरण": 8172,
      " व्यवसायी": 8173,
      "योजन": 8174,
      "ij": 8175,
      "has": 8176,
      "hi,": 8177,
      " Secretary": 8178,
      "वासी": 8179,
      " All": 8180,
      " कायम": 8181,
      "river": 8182,
      " KP": 8183,
      " बैठकमा": 8184,
      " nam": 8185,
      " देउवा": 8186,
      " Dahal": 8187,
      " चुनाव": 8188,
      "oper": 8189,
      " view": 8190,
      " खोप": 8191,
      " बिक्री": 8192,
      " Maoist": 8193,
      " गरिरहेका": 8194,
      " माथि": 8195,
      "ump": 8196,
      " चिनि": 8197,
      " किसान": 8198,
      "oh": 8199,
      " अंक": 8200,
      " federal": 8201,
      " दाहाल": 8202,
      " प्या": 8203,
      " Z": 8204,
      "ware": 8205,
      " mot": 8206,
      " got": 8207,
      " प्रचण्ड": 8208,
      "ए।\n": 8209,
      "anch": 8210,
      " agric": 8211,
      " गठन": 8212,
      " fund": 8213,
      " Spe": 8214,
      " No.": 8215,
      " grow": 8216,
      " industry": 8217,
      "rup": 8218,
      "सम्बन्ध": 8219,
      " diseas": 8220,
      "rishn": 8221,
      " Q": 8222,
      "viron": 8223,
      " issued": 8224,
      " त्रि": 8225,
      " Even": 8226,
      "ट्टा": 8227,
      "टको": 8228,
      " concern": 8229,
      "iver": 8230,
      " clear": 8231,
      " प्रदर्शन": 8232,
      " Prasad": 8233,
      " क्षति": 8234,
      " गर्दछ।\n": 8235,
      "डिया": 8236,
      "कारा": 8237,
      " भाषा": 8238,
      " production": 8239,
      " ठाउँमा": 8240,
      "ङको": 8241,
      " Americ": 8242,
      " झा": 8243,
      " question": 8244,
      " डो": 8245,
      "tion": 8246,
      " बिही": 8247,
      " near": 8248,
      " केपी": 8249,
      " नारा": 8250,
      " सम्बन्धित": 8251,
      " 'T": 8252,
      "hik": 8253,
      " नियम": 8254,
      "ize": 8255,
      " Yad": 8256,
      " To": 8257,
      "ल्य": 8258,
      " आवश्यकता": 8259,
      " घरमा": 8260,
      " लाई": 8261,
      " Singh": 8262,
      " 0": 8263,
      " Corona": 8264,
      " नं": 8265,
      " गरेपछि": 8266,
      "ेटि": 8267,
      "शन": 8268,
      " et": 8269,
      " free": 8270,
      " सुझा": 8271,
      " appoint": 8272,
      "नाथ": 8273,
      "स्त्र": 8274,
      " २१": 8275,
      " नहुने": 8276,
      " पुष्टि": 8277,
      " समावेश": 8278,
      "पोर्ट": 8279,
      " मध्य": 8280,
      " UML": 8281,
      " प्रमाण": 8282,
      " तुल": 8283,
      "ालले": 8284,
      " Met": 8285,
      " हट": 8286,
      " बिरामी": 8287,
      " जिल्लामा": 8288,
      "डित": 8289,
      " Bas": 8290,
      " bord": 8291,
      " gold": 8292,
      "देश्य": 8293,
      "ana": 8294,
      "ज्य": 8295,
      " Deub": 8296,
      " गृह": 8297,
      " सम्ब": 8298,
      " Kam": 8299,
      " soon": 8300,
      " हत्या": 8301,
      " दुर्घट": 8302,
      " चीन": 8303,
      " वास्त": 8304,
      "छु": 8305,
      " agreement": 8306,
      "-in": 8307,
      " reli": 8308,
      "aster": 8309,
      " सम्मेल": 8310,
      "ilities": 8311,
      " कम्युनि": 8312,
      " caus": 8313,
      " festiv": 8314,
      " provided": 8315,
      "भो": 8316,
      " त्यसै": 8317,
      " लाग्": 8318,
      " सिंह": 8319,
      " उत्तर": 8320,
      " न्याय": 8321,
      " cele": 8322,
      " bre": 8323,
      "oon": 8324,
      " लिएको": 8325,
      " सजि": 8326,
      " previous": 8327,
      " appro": 8328,
      "मे": 8329,
      " प्रविधि": 8330,
      "क्न": 8331,
      "-l": 8332,
      " शरी": 8333,
      "क्क": 8334,
      " अनुमति": 8335,
      " चिक": 8336,
      " mob": 8337,
      " Nar": 8338,
      " lockdown": 8339,
      "ves": 8340,
      " ग्राह": 8341,
      " spread": 8342,
      " pract": 8343,
      " somet": 8344,
      "abor": 8345,
      " वित्त": 8346,
      " provinc": 8347,
      " complete": 8348,
      " Sub": 8349,
      " promot": 8350,
      " कुल": 8351,
      " सोही": 8352,
      " Soc": 8353,
      " मन्त्रालयले": 8354,
      " [": 8355,
      " Yadav": 8356,
      " दक्षिण": 8357,
      " towards": 8358,
      "बाइ": 8359,
      " निरन्तर": 8360,
      " पराज": 8361,
      " वरि": 8362,
      "क्रिय": 8363,
      " कमि": 8364,
      " पृ": 8365,
      "खु": 8366,
      " कार्यान्वयन": 8367,
      "s\n": 8368,
      " शेयर": 8369,
      "गरपालिका": 8370,
      "षद्": 8371,
      " find": 8372,
      " son": 8373,
      "ti": 8374,
      " occas": 8375,
      " शी": 8376,
      " साइ": 8377,
      " etc": 8378,
      " अस्पतालमा": 8379,
      "पित": 8380,
      " हस्ता": 8381,
      " built": 8382,
      " sw": 8383,
      " खान": 8384,
      " बताउनुभयो": 8385,
      " ०": 8386,
      " औं": 8387,
      " services": 8388,
      " लो": 8389,
      "लित": 8390,
      " ty": 8391,
      "म्भीर": 8392,
      "ched": 8393,
      " उमेर": 8394,
      " बजे": 8395,
      "ke": 8396,
      " यादव": 8397,
      " अनलाइन": 8398,
      "योजना": 8399,
      "ecutive": 8400,
      " yet": 8401,
      " love": 8402,
      " सामग्री": 8403,
      " बनाएको": 8404,
      " मना": 8405,
      " relations": 8406,
      " हेर": 8407,
      " उदा": 8408,
      " ministry": 8409,
      " ident": 8410,
      "angu": 8411,
      " Constitution": 8412,
      "िल्लो": 8413,
      "लाको": 8414,
      " शाखा": 8415,
      " अधि": 8416,
      " दिइ": 8417,
      " Prachand": 8418,
      " सिर्": 8419,
      " conn": 8420,
      " direct": 8421,
      " अहिलेसम्म": 8422,
      "टाइ": 8423,
      " व्यक्त": 8424,
      " addition": 8425,
      " woman": 8426,
      " गम्भीर": 8427,
      " cases": 8428,
      " side": 8429,
      "ौती": 8430,
      "ggest": 8431,
      "ily": 8432,
      "irm": 8433,
      " ढु": 8434,
      " Par": 8435,
      "बेला": 8436,
      " until": 8437,
      " अन्तर": 8438,
      " secretary": 8439,
      " आन्दोलन": 8440,
      " increasing": 8441,
      " dest": 8442,
      "आई": 8443,
      " Some": 8444,
      " लागू": 8445,
      " जन्म": 8446,
      " saf": 8447,
      "inet": 8448,
      " Rs.": 8449,
      "hing": 8450,
      " Khan": 8451,
      " थिएन": 8452,
      " \"S": 8453,
      " considered": 8454,
      " attention": 8455,
      "urther": 8456,
      "aly": 8457,
      "gunj": 8458,
      "सम्बन्धी": 8459,
      " bir": 8460,
      "ivil": 8461,
      " cannot": 8462,
      "प्प": 8463,
      " प्रस्तुत": 8464,
      "संग": 8465,
      "itor": 8466,
      " च्या": 8467,
      " सभापति": 8468,
      "दम": 8469,
      "चान": 8470,
      " government.\n": 8471,
      " Co": 8472,
      " यसरी": 8473,
      " study": 8474,
      "द्द": 8475,
      " feel": 8476,
      "फ्": 8477,
      " शनिबार": 8478,
      " सिर्जना": 8479,
      " बैंकले": 8480,
      " fall": 8481,
      "alit": 8482,
      " provision": 8483,
      " ४०": 8484,
      "erious": 8485,
      " शब्द": 8486,
      " foot": 8487,
      "itan": 8488,
      " शहर": 8489,
      "isc": 8490,
      "ID": 8491,
      "द्र": 8492,
      " electric": 8493,
      "rast": 8494,
      " getting": 8495,
      " sour": 8496,
      "road": 8497,
      " term": 8498,
      "ाइन": 8499,
      "र्‍": 8500,
      " छुट": 8501,
      "ential": 8502,
      " लिने": 8503,
      " gen": 8504,
      " resident": 8505,
      " प्राथ": 8506,
      " महामारी": 8507,
      " तरिका": 8508,
      " avail": 8509,
      " Chinese": 8510,
      " strong": 8511,
      " Eng": 8512,
      " पुरा": 8513,
      " भई": 8514,
      " खुला": 8515,
      " सक्छ।\n": 8516,
      " becom": 8517,
      "ाउनु": 8518,
      "ज्ञा": 8519,
      "la": 8520,
      "view": 8521,
      "kot": 8522,
      "पान": 8523,
      " विज": 8524,
      " across": 8525,
      " अग्र": 8526,
      " mind": 8527,
      " director": 8528,
      " तर्फ": 8529,
      " पर्छ": 8530,
      " investment": 8531,
      " अभाव": 8532,
      "mitted": 8533,
      "भु": 8534,
      " दिए।\n": 8535,
      " घु": 8536,
      "nel": 8537,
      " श्रम": 8538,
      ",\n": 8539,
      " diss": 8540,
      "ीका": 8541,
      "atural": 8542,
      " अन्त्य": 8543,
      "कृष्ट": 8544,
      "सचिव": 8545,
      " everyone": 8546,
      "oday": 8547,
      " आत्म": 8548,
      " impro": 8549,
      " Fore": 8550,
      " मंगलबार": 8551,
      " प्रशासन": 8552,
      " While": 8553,
      "aur": 8554,
      " राजधान": 8555,
      " lack": 8556,
      " प्राथमिक": 8557,
      " non": 8558,
      " benef": 8559,
      " सर्वोच्च": 8560,
      " Ko": 8561,
      " प्रवक्ता": 8562,
      "hys": 8563,
      " विवरण": 8564,
      "ारमा": 8565,
      " youth": 8566,
      "icle": 8567,
      " community": 8568,
      "यण": 8569,
      " Sur": 8570,
      "uted": 8571,
      "ङले": 8572,
      "hest": 8573,
      "uro": 8574,
      " age": 8575,
      " statement": 8576,
      " विदेशी": 8577,
      "acher": 8578,
      "सिया": 8579,
      " spok": 8580,
      " किलो": 8581,
      "ports": 8582,
      " विगत": 8583,
      " बालब": 8584,
      "लका": 8585,
      " formed": 8586,
      "रेल": 8587,
      " पाठ": 8588,
      " रंग": 8589,
      " Gurung": 8590,
      " suggest": 8591,
      " संरक्षण": 8592,
      " Tam": 8593,
      " राई": 8594,
      " Supreme": 8595,
      " महत्वपूर्ण": 8596,
      " deb": 8597,
      " disp": 8598,
      " संश": 8599,
      " experi": 8600,
      " places": 8601,
      " Bhand": 8602,
      "िकेट": 8603,
      " नियु": 8604,
      " doctor": 8605,
      " \"he": 8606,
      " education": 8607,
      " सुझाव": 8608,
      "pan": 8609,
      " dr": 8610,
      " \"We": 8611,
      " प्रशि": 8612,
      "pa,": 8613,
      "धिकरण": 8614,
      "arent": 8615,
      "hav": 8616,
      " share": 8617,
      "ley": 8618,
      " war": 8619,
      "कारात्मक": 8620,
      " Nepalis": 8621,
      " चिकित्": 8622,
      " Ele": 8623,
      " स्त": 8624,
      " attack": 8625,
      " अक्": 8626,
      " फिर्ता": 8627,
      " कान": 8628,
      " २२": 8629,
      " बिहीबार": 8630,
      " always": 8631,
      "cle": 8632,
      "ait": 8633,
      " commit": 8634,
      "ulation": 8635,
      " घा": 8636,
      " Pe": 8637,
      " लकड": 8638,
      "ध्या": 8639,
      "बाही": 8640,
      "ंका": 8641,
      " issue": 8642,
      "oy": 8643,
      "ara": 8644,
      " राख्न": 8645,
      "ेसम्म": 8646,
      "ानि": 8647,
      " began": 8648,
      " सिफ": 8649,
      " suff": 8650,
      " lim": 8651,
      " स्रोत": 8652,
      " ताल": 8653,
      " अधिकृत": 8654,
      " हुँदैन": 8655,
      " responsibility": 8656,
      " elections": 8657,
      " gam": 8658,
      "हल": 8659,
      "usp": 8660,
      " recomm": 8661,
      " उद्देश्य": 8662,
      "ropolitan": 8663,
      " light": 8664,
      " आदेश": 8665,
      " position": 8666,
      " Pl": 8667,
      " Ab": 8668,
      "धीश": 8669,
      " भण्डारी": 8670,
      " अन्तर्गत": 8671,
      " dam": 8672,
      " जिम्मेवारी": 8673,
      " final": 8674,
      " Reg": 8675,
      "हरू,": 8676,
      " released": 8677,
      "एकी": 8678,
      " pain": 8679,
      " movement": 8680,
      "ता,": 8681,
      " celebr": 8682,
      " change": 8683,
      " Office,": 8684,
      "ateg": 8685,
      "न्तु": 8686,
      "atch": 8687,
      " people.\n": 8688,
      "नुपर्छ।\n": 8689,
      " नेपालका": 8690,
      " him,": 8691,
      " room": 8692,
      " active": 8693,
      "ीकरण": 8694,
      " defe": 8695,
      " proper": 8696,
      " During": 8697,
      "’,": 8698,
      "yd": 8699,
      " पे": 8700,
      " उपकरण": 8701,
      "वे": 8702,
      " चे": 8703,
      " बैठकले": 8704,
      " वित्तीय": 8705,
      " आउ": 8706,
      " gre": 8707,
      " neg": 8708,
      " ज्यान": 8709,
      " आउन": 8710,
      " Kal": 8711,
      " प्राधिकरण": 8712,
      " rupe": 8713,
      " सम्पूर्ण": 8714,
      " earth": 8715,
      " शीर्ष": 8716,
      " सिफारि": 8717,
      "न्तरिक": 8718,
      " pros": 8719,
      "ages": 8720,
      " वस्तु": 8721,
      " पाल": 8722,
      " Cup": 8723,
      " langu": 8724,
      " रोजगारी": 8725,
      " rain": 8726,
      " word": 8727,
      " completed": 8728,
      "र्भ": 8729,
      " Wh": 8730,
      " तथ्या": 8731,
      " Government": 8732,
      " परिण": 8733,
      "het": 8734,
      " purcha": 8735,
      " serious": 8736,
      "portun": 8737,
      "ha,": 8738,
      "aker": 8739,
      "ङमा": 8740,
      " appear": 8741,
      " Assembly": 8742,
      " धर्म": 8743,
      " टिम": 8744,
      " self": 8745,
      " मनो": 8746,
      "atn": 8747,
      " पूर्वा": 8748,
      " गुमा": 8749,
      " समर्थ": 8750,
      "हत": 8751,
      " further": 8752,
      " बालबालिका": 8753,
      " फर्क": 8754,
      " सक्नुहु": 8755,
      " पेश": 8756,
      " सौ": 8757,
      " चित": 8758,
      " अर्था": 8759,
      "aughter": 8760,
      " सक्रिय": 8761,
      "hank": 8762,
      " Chit": 8763,
      " \"s": 8764,
      "fore,": 8765,
      " today.\n": 8766,
      " My": 8767,
      " घाइ": 8768,
      "लग्न": 8769,
      " नदी": 8770,
      " cut": 8771,
      "स्पर्": 8772,
      "ually": 8773,
      "स्ती": 8774,
      " थियो,": 8775,
      " prime": 8776,
      " अवसर": 8777,
      "ाउँदै": 8778,
      " जस्ता": 8779,
      " आन्तरिक": 8780,
      "OV": 8781,
      "टे": 8782,
      "याधीश": 8783,
      "पय": 8784,
      "'.\n": 8785,
      " environ": 8786,
      "chie": 8787,
      " regist": 8788,
      " associ": 8789,
      " जवा": 8790,
      " हुनेछ।\n": 8791,
      " elected": 8792,
      "शाख": 8793,
      "ternal": 8794,
      " worth": 8795,
      " विप": 8796,
      "मत": 8797,
      " journal": 8798,
      " असर": 8799,
      " एकै": 8800,
      " crit": 8801,
      " कले": 8802,
      " Deputy": 8803,
      " sell": 8804,
      "डे": 8805,
      "गी": 8806,
      " भौ": 8807,
      " conduct": 8808,
      " जहाँ": 8809,
      " happen": 8810,
      " प्रभावित": 8811,
      "ोरी": 8812,
      " कोष": 8813,
      " सम्भव": 8814,
      " गाडी": 8815,
      " लिग": 8816,
      "ित्व": 8817,
      "कल": 8818,
      " केसी": 8819,
      " abroad": 8820,
      " ऋण": 8821,
      "'\n": 8822,
      " walk": 8823,
      "oved": 8824,
      " नदि": 8825,
      "mber": 8826,
      " राख्ने": 8827,
      "रिक": 8828,
      " common": 8829,
      " कप": 8830,
      " इतिहा": 8831,
      " profess": 8832,
      " killed": 8833,
      " fun": 8834,
      "apur": 8835,
      " धन": 8836,
      " arri": 8837,
      " कमा": 8838,
      " known": 8839,
      "कम्प": 8840,
      "ेश्व": 8841,
      " मन्द": 8842,
      "ais": 8843,
      " खेत": 8844,
      " $": 8845,
      " authority": 8846,
      " क्षमता": 8847,
      " शान्ति": 8848,
      " management": 8849,
      " नाममा": 8850,
      " twenty": 8851,
      " संसार": 8852,
      "न्तरण": 8853,
      " beaut": 8854,
      "endent": 8855,
      " Kh": 8856,
      "rodu": 8857,
      " सकेको": 8858,
      " full": 8859,
      " आश": 8860,
      "bit": 8861,
      "val": 8862,
      " ide": 8863,
      " Karn": 8864,
      " Just": 8865,
      " पुस्त": 8866,
      "ia,": 8867,
      " प्": 8868,
      " committe": 8869,
      " living": 8870,
      " आकर्ष": 8871,
      " announced": 8872,
      "adesh": 8873,
      " वर्षमा": 8874,
      " वन": 8875,
      " कर्ण": 8876,
      "iqu": 8877,
      "स,": 8878,
      "rastructure": 8879,
      " video": 8880,
      " आठ": 8881,
      " उदाहरण": 8882,
      " opportun": 8883,
      " दर्श": 8884,
      " Jap": 8885,
      " विवाह": 8886,
      " यसमा": 8887,
      "क्ट": 8888,
      " लाइ": 8889,
      "rishna": 8890,
      " South": 8891,
      " ट्रा": 8892,
      " International": 8893,
      "hold": 8894,
      "imes": 8895,
      " currently": 8896,
      "ामा": 8897,
      " fifteen": 8898,
      " el": 8899,
      " उत्कृष्ट": 8900,
      " fut": 8901,
      " स्वतन्त्र": 8902,
      " laun": 8903,
      " 1,": 8904,
      " प्रतिस्पर्": 8905,
      "काम": 8906,
      "thing": 8907,
      " छैनन्": 8908,
      " माध्यम": 8909,
      " सुन्द": 8910,
      "तः": 8911,
      "udi": 8912,
      " उनीहरु": 8913,
      "olve": 8914,
      " निर्देशक": 8915,
      " क्षेत्रको": 8916,
      " Dire": 8917,
      " achie": 8918,
      " कतिपय": 8919,
      " जवाफ": 8920,
      "वेशन": 8921,
      " परीक्षा": 8922,
      " भट्टराई": 8923,
      " despite": 8924,
      " सेयर": 8925,
      " अपरा": 8926,
      " father": 8927,
      " day.\n": 8928,
      " commission": 8929,
      " fire": 8930,
      " led": 8931,
      " Or": 8932,
      "र्‍या": 8933,
      " असार": 8934,
      "कर्मी": 8935,
      " सुरक्षित": 8936,
      " Sher": 8937,
      "००": 8938,
      "ष्य": 8939,
      " भाइरस": 8940,
      " संयो": 8941,
      " यू": 8942,
      "OVID": 8943,
      " hol": 8944,
      " देशको": 8945,
      " उनीहरूको": 8946,
      " years,": 8947,
      " संरचना": 8948,
      " भी": 8949,
      " गठ": 8950,
      " accident": 8951,
      " थालेको": 8952,
      " dail": 8953,
      " बसेको": 8954,
      " कथा": 8955,
      " एम": 8956,
      " tar": 8957,
      " victim": 8958,
      "नो": 8959,
      " संलग्न": 8960,
      " सुनि": 8961,
      " दिनमा": 8962,
      "रले": 8963,
      " hotel": 8964,
      " पार्टीको": 8965,
      " face": 8966,
      "men": 8967,
      " विकल्प": 8968,
      "काे": 8969,
      " घाइते": 8970,
      " Gh": 8971,
      " निष्": 8972,
      " २३": 8973,
      "ipur": 8974,
      " फे": 8975,
      " चिन्": 8976,
      " Do": 8977,
      " गराउने": 8978,
      "age.\n": 8979,
      "मार्फत": 8980,
      " opposition": 8981,
      "urd": 8982,
      " expressed": 8983,
      " viol": 8984,
      " कम्पनीको": 8985,
      " available": 8986,
      " played": 8987,
      " राखिएको": 8988,
      " low": 8989,
      " stat": 8990,
      " arrange": 8991,
      "ization": 8992,
      " sid": 8993,
      "रीमा": 8994,
      "an.\n": 8995,
      " forest": 8996,
      "rain": 8997,
      "ability": 8998,
      " बोर्ड": 8999,
      "ताले": 9000,
      " KC": 9001,
      " लाग्ने": 9002,
      " organization": 9003,
      " days.\n": 9004,
      "तियार": 9005,
      " इन्टर": 9006,
      " His": 9007,
      "hysical": 9008,
      " भइसकेको": 9009,
      " beha": 9010,
      " Sar": 9011,
      " hold": 9012,
      " महत्": 9013,
      " organized": 9014,
      "हे": 9015,
      " भवन": 9016,
      " prevent": 9017,
      " less": 9018,
      " आफूलाई": 9019,
      " 'I": 9020,
      "ott": 9021,
      " साथी": 9022,
      "मको": 9023,
      " sold": 9024,
      "यो,": 9025,
      " कानू": 9026,
      " त्यति": 9027,
      "नुहोस्।\n": 9028,
      " doing": 9029,
      " विधे": 9030,
      " job": 9031,
      "स्कार": 9032,
      " उपत्य": 9033,
      " कोइ": 9034,
      "मन्त्र": 9035,
      "सरमा": 9036,
      " told": 9037,
      " future": 9038,
      " महाधि": 9039,
      " समितिले": 9040,
      " conference": 9041,
      " Therefore,": 9042,
      "ख्": 9043,
      " हरा": 9044,
      " सम्मान": 9045,
      "ेप": 9046,
      " Offic": 9047,
      " अनुभव": 9048,
      " वर्ग": 9049,
      " belie": 9050,
      " हामीलाई": 9051,
      " later": 9052,
      "ate,": 9053,
      " transport": 9054,
      "स्थल": 9055,
      " फर्कि": 9056,
      "overed": 9057,
      "ङ,": 9058,
      " passed": 9059,
      " San": 9060,
      "ita": 9061,
      " Mal": 9062,
      "bass": 9063,
      " plant": 9064,
      "ामु": 9065,
      "-d": 9066,
      "band": 9067,
      " design": 9068,
      "ेलु": 9069,
      "ँजी": 9070,
      " स्थिति": 9071,
      " student": 9072,
      " Bal": 9073,
      "विद्यालय": 9074,
      " Council": 9075,
      " तपाइँ": 9076,
      " detail": 9077,
      " रोक": 9078,
      " card": 9079,
      "न्दु": 9080,
      " chairman": 9081,
      " याता": 9082,
      " वीर": 9083,
      " ey": 9084,
      " shares": 9085,
      " ser": 9086,
      " सँग": 9087,
      " मिल्": 9088,
      " Khad": 9089,
      " relig": 9090,
      " बन्न": 9091,
      "सद्": 9092,
      " २८": 9093,
      " भारतको": 9094,
      " goal": 9095,
      " decl": 9096,
      " Af": 9097,
      "ौं।\n": 9098,
      " Rus": 9099,
      "rug": 9100,
      " tourism": 9101,
      " गर्नुपर्छ": 9102,
      " धार": 9103,
      " भुक्ता": 9104,
      " बाध्य": 9105,
      " गर्छन्": 9106,
      " Today": 9107,
      " देशमा": 9108,
      " bill": 9109,
      ".5": 9110,
      " coll": 9111,
      "रे": 9112,
      "ffic": 9113,
      "सित": 9114,
      " Lim": 9115,
      " गैर": 9116,
      "pr": 9117,
      " di": 9118,
      "ev": 9119,
      " minut": 9120,
      " Dh": 9121,
      " himself": 9122,
      "छ,": 9123,
      " २७": 9124,
      "यता": 9125,
      " ब्र": 9126,
      "न्ज": 9127,
      "अन्त": 9128,
      " एका": 9129,
      "ल्ड": 9130,
      " ब्रा": 9131,
      "ible": 9132,
      " heart": 9133,
      " हिमा": 9134,
      "सव": 9135,
      " जनताको": 9136,
      " दिव": 9137,
      " कानुन": 9138,
      " seems": 9139,
      " विरुद्ध": 9140,
      " लै": 9141,
      "mission": 9142,
      " बताइएको": 9143,
      " access": 9144,
      " Pand": 9145,
      " ठा": 9146,
      " kept": 9147,
      "वक": 9148,
      " Day": 9149,
      " उपत्यका": 9150,
      " recent": 9151,
      " data": 9152,
      " जस": 9153,
      " कारबाही": 9154,
      " initi": 9155,
      " कृष्ण": 9156,
      " थाल": 9157,
      "ricket": 9158,
      " published": 9159,
      " राति": 9160,
      " written": 9161,
      "sel": 9162,
      " वर्षा": 9163,
      " teacher": 9164,
      " injured": 9165,
      " क्रिकेट": 9166,
      " ब्य": 9167,
      " natural": 9168,
      "टेड": 9169,
      " respect": 9170,
      "दण्ड": 9171,
      " डिज": 9172,
      " चै": 9173,
      " पर्व": 9174,
      " thing": 9175,
      " अधिकांश": 9176,
      "cell": 9177,
      " चुन": 9178,
      " चिनियाँ": 9179,
      " dom": 9180,
      " Kore": 9181,
      " बनाइ": 9182,
      " पहिचान": 9183,
      " थु": 9184,
      "ज्ञान": 9185,
      " Kark": 9186,
      " कुन": 9187,
      "ष्टा": 9188,
      "दु": 9189,
      " ter": 9190,
      "af": 9191,
      "sh": 9192,
      " सम्बोधन": 9193,
      " pm": 9194,
      " अघ": 9195,
      "ipl": 9196,
      " Pokharel": 9197,
      " chall": 9198,
      " दशम": 9199,
      " आप": 9200,
      " using": 9201,
      " live": 9202,
      " based": 9203,
      " fail": 9204,
      " देव": 9205,
      "',": 9206,
      "ons": 9207,
      " कठ": 9208,
      "िमि": 9209,
      " सकेन": 9210,
      " २६": 9211,
      " मिला": 9212,
      "ess.\n": 9213,
      " outs": 9214,
      " कार्की": 9215,
      " लगायतका": 9216,
      " कलेज": 9217,
      " farmers": 9218,
      " Not": 9219,
      "reed": 9220,
      " खड्": 9221,
      " example": 9222,
      "ल्दै": 9223,
      "irmed": 9224,
      "esperson": 9225,
      " भ्र": 9226,
      " ready": 9227,
      " पुग्ने": 9228,
      " prepared": 9229,
      " Metropolitan": 9230,
      "रीले": 9231,
      " returned": 9232,
      "ँदैन": 9233,
      "app": 9234,
      "ate.\n": 9235,
      "स्थान": 9236,
      "ograp": 9237,
      "जेन्": 9238,
      " तिन": 9239,
      "धानिक": 9240,
      " उम्मेदवार": 9241,
      " senior": 9242,
      " tit": 9243,
      " season": 9244,
      " contrib": 9245,
      "ine.\n": 9246,
      " गराउन": 9247,
      " मुख्यमन्त्री": 9248,
      "ंसा": 9249,
      "सँगको": 9250,
      " कक्षा": 9251,
      " activities": 9252,
      "न्छ,": 9253,
      " close": 9254,
      " maintain": 9255,
      " पशु": 9256,
      " छौँ": 9257,
      " पूर्वाधार": 9258,
      "oice": 9259,
      "दौ": 9260,
      " नो": 9261,
      " says,": 9262,
      "श्": 9263,
      " eat": 9264,
      " कमिटी": 9265,
      " India.\n": 9266,
      "गि": 9267,
      " बद": 9268,
      "थो": 9269,
      " उपाध्यक्ष": 9270,
      " सच": 9271,
      " राजनीति": 9272,
      " province": 9273,
      " कसै": 9274,
      " पक्षमा": 9275,
      " पराजित": 9276,
      " Bag": 9277,
      " ver": 9278,
      "ाइएको": 9279,
      " border": 9280,
      "hakt": 9281,
      "चालन": 9282,
      " औषधि": 9283,
      " उपयोग": 9284,
      " समन्व": 9285,
      " Dev": 9286,
      " abs": 9287,
      " government,": 9288,
      " पुगेका": 9289,
      "ka": 9290,
      " confirmed": 9291,
      " letter": 9292,
      " अल": 9293,
      " build": 9294,
      "ल्ट": 9295,
      " ‘अ": 9296,
      "dra": 9297,
      " Air": 9298,
      " सध": 9299,
      " दिइएको": 9300,
      " सक्दैन": 9301,
      " होटल": 9302,
      "कूल": 9303,
      " सुन्दर": 9304,
      " drink": 9305,
      " sim": 9306,
      "amp": 9307,
      " भवि": 9308,
      " mor": 9309,
      "ense": 9310,
      " having": 9311,
      " daughter": 9312,
      " एक्": 9313,
      " insurance": 9314,
      "देशिक": 9315,
      "अन्तर्": 9316,
      " सेना": 9317,
      " छैन,": 9318,
      "less": 9319,
      "मेन्ट": 9320,
      " protect": 9321,
      "ina": 9322,
      "atory": 9323,
      " संयोजक": 9324,
      "u,": 9325,
      " केवल": 9326,
      " mention": 9327,
      "bal": 9328,
      " भाव": 9329,
      "मती": 9330,
      " Earli": 9331,
      " ग्राहक": 9332,
      " बर्": 9333,
      " सहा": 9334,
      " व्याव": 9335,
      " single": 9336,
      "ging": 9337,
      "yle": 9338,
      " आदि": 9339,
      " श्रेष्ठले": 9340,
      " subject": 9341,
      " Koir": 9342,
      " thirty": 9343,
      " अरू": 9344,
      " आक्रमण": 9345,
      "गमन": 9346,
      " music": 9347,
      " Deuba": 9348,
      " पाएको": 9349,
      " \"He": 9350,
      " बराब": 9351,
      " पोखरेल": 9352,
      " खाना": 9353,
      "abinet": 9354,
      " होइन,": 9355,
      " virus": 9356,
      "चक": 9357,
      "ल्लाह": 9358,
      " successful": 9359,
      " सञ्ज": 9360,
      " पर्या": 9361,
      " Representatives": 9362,
      " target": 9363,
      " सम्पर्": 9364,
      " सहकारी": 9365,
      "h,": 9366,
      " represent": 9367,
      "मार्ग": 9368,
      " aware": 9369,
      " हालसम्म": 9370,
      " Association": 9371,
      "बाटै": 9372,
      " प्राय": 9373,
      " effective": 9374,
      " jud": 9375,
      " Prachanda": 9376,
      " rev": 9377,
      " Director": 9378,
      " little": 9379,
      "क्षर": 9380,
      "van": 9381,
      "त्रु": 9382,
      " प्रभावकारी": 9383,
      " Pak": 9384,
      "ex": 9385,
      " Indust": 9386,
      " विश्वविद्यालय": 9387,
      " राजा": 9388,
      " जानु": 9389,
      " X": 9390,
      " आम": 9391,
      " निश्चित": 9392,
      " involved": 9393,
      "lu": 9394,
      " Adhik": 9395,
      " them.\n": 9396,
      " भन्न": 9397,
      " नियमित": 9398,
      " leave": 9399,
      " check": 9400,
      " pressure": 9401,
      "्यास": 9402,
      "लेका": 9403,
      " Ins": 9404,
      "पर्ने": 9405,
      " हरि": 9406,
      " establish": 9407,
      " Department": 9408,
      "iw": 9409,
      "ier": 9410,
      "-five": 9411,
      " संकलन": 9412,
      "ury": 9413,
      "akes": 9414,
      " people,": 9415,
      "जोर": 9416,
      " यद्य": 9417,
      " pot": 9418,
      " hand,": 9419,
      " work.\n": 9420,
      " संशोधन": 9421,
      " Finance": 9422,
      " नव": 9423,
      " रन": 9424,
      " दशमलव": 9425,
      " fav": 9426,
      "ance.\n": 9427,
      " 24": 9428,
      "गु": 9429,
      " society": 9430,
      " Although": 9431,
      "andak": 9432,
      " पेट": 9433,
      " फोटो": 9434,
      " susp": 9435,
      " उडान": 9436,
      " संगठन": 9437,
      " बनाएर": 9438,
      " प्रतिष्ठ": 9439,
      "लाले": 9440,
      "inated": 9441,
      "रीक्षक": 9442,
      "ague": 9443,
      " peace": 9444,
      " भयो।\n": 9445,
      " added": 9446,
      "-th": 9447,
      "pid": 9448,
      " things": 9449,
      " कार्यकारी": 9450,
      "vest": 9451,
      " राखेर": 9452,
      " समन्वय": 9453,
      " पश्चिम": 9454,
      " staff": 9455,
      " बढा": 9456,
      " Sap": 9457,
      "वटा": 9458,
      " आफूले": 9459,
      " महासंघ": 9460,
      " गरिएका": 9461,
      "ratic": 9462,
      "ang,": 9463,
      " माइ": 9464,
      " उद्ध": 9465,
      "बो": 9466,
      " dev": 9467,
      " article": 9468,
      "भी": 9469,
      " ल्याउन": 9470,
      " तिनीहरू": 9471,
      " Rs.\n": 9472,
      " fa": 9473,
      " ठूला": 9474,
      "डमा": 9475,
      " gone": 9476,
      " protest": 9477,
      "भने": 9478,
      "gether": 9479,
      " together": 9480,
      " उनीहरूले": 9481,
      " histor": 9482,
      "-w": 9483,
      " affected": 9484,
      " अत्य": 9485,
      " जेठ": 9486,
      "विधिक": 9487,
      " paid": 9488,
      " सही": 9489,
      " relief": 9490,
      " उसले": 9491,
      " ban": 9492,
      "ison": 9493,
      "ead": 9494,
      " मध्ये": 9495,
      " कोइरा": 9496,
      " बैंकको": 9497,
      " least": 9498,
      "ety": 9499,
      "reng": 9500,
      " प्रजा": 9501,
      " sele": 9502,
      " following": 9503,
      " creat": 9504,
      " सङ्घ": 9505,
      " पीडित": 9506,
      " Bang": 9507,
      " comes": 9508,
      " Jha": 9509,
      " others": 9510,
      "-19": 9511,
      " real": 9512,
      " competition": 9513,
      "wal": 9514,
      " charact": 9515,
      " भुक्तानी": 9516,
      "ane": 9517,
      " quality": 9518,
      " यसका": 9519,
      " सश": 9520,
      " assist": 9521,
      " काग": 9522,
      " फु": 9523,
      " भविष्य": 9524,
      " समितिको": 9525,
      " प्रतिनिधिसभा": 9526,
      " माघ": 9527,
      " step": 9528,
      " जति": 9529,
      " नसकेको": 9530,
      " giving": 9531,
      " तामा": 9532,
      " birth": 9533,
      " whether": 9534,
      "बन्द": 9535,
      "अन्तर्गत": 9536,
      "दय": 9537,
      " कम्": 9538,
      " pet": 9539,
      " अनुमान": 9540,
      " कोठा": 9541,
      "सल": 9542,
      "चार्य": 9543,
      " tradition": 9544,
      "iversity": 9545,
      " कट": 9546,
      " डु": 9547,
      " employees": 9548,
      " अस्": 9549,
      " गतिविधि": 9550,
      " साधारण": 9551,
      "सिय": 9552,
      "uck": 9553,
      " थापाले": 9554,
      " sche": 9555,
      " लागि,": 9556,
      "ेली": 9557,
      "पूर्ति": 9558,
      "ारो": 9559,
      "्रु": 9560,
      "us,": 9561,
      " भनिएको": 9562,
      "ium": 9563,
      " People": 9564,
      " COVID": 9565,
      " major": 9566,
      " परियोजना": 9567,
      " कार्यकर्ता": 9568,
      " Div": 9569,
      " regular": 9570,
      " kind": 9571,
      " समान": 9572,
      " better": 9573,
      "ising": 9574,
      "ule": 9575,
      " भदौ": 9576,
      " भूकम्प": 9577,
      " ६०": 9578,
      " z": 9579,
      " मा,": 9580,
      "मन": 9581,
      " चौध": 9582,
      " उनीहरू": 9583,
      " banks": 9584,
      " cooper": 9585,
      " brid": 9586,
      " अदालत": 9587,
      "orth": 9588,
      " बताउँछन्": 9589,
      " विरा": 9590,
      "नीय": 9591,
      " वरिष्ठ": 9592,
      " once": 9593,
      "eb": 9594,
      " यातायात": 9595,
      "र्सि": 9596,
      " expens": 9597,
      "किस्ता": 9598,
      " परिणाम": 9599,
      " Center": 9600,
      "autam": 9601,
      " popular": 9602,
      "ased": 9603,
      " gave": 9604,
      " व्यवहार": 9605,
      " provincial": 9606,
      " Gy": 9607,
      "न्छन्": 9608,
      " spec": 9609,
      " Ph": 9610,
      " मन्त्रि": 9611,
      "मला": 9612,
      " rights": 9613,
      " 50": 9614,
      "णिज्य": 9615,
      " पुनर्": 9616,
      "वाल": 9617,
      " Res": 9618,
      " तस्": 9619,
      " sex": 9620,
      " Val": 9621,
      "र,": 9622,
      " you'": 9623,
      "दानी": 9624,
      " एकता": 9625,
      " Bo": 9626,
      "ेसन": 9627,
      " साउन": 9628,
      " contract": 9629,
      " front": 9630,
      " model": 9631,
      " माप": 9632,
      " flow": 9633,
      " गरेकी": 9634,
      " तपाईंले": 9635,
      "ेले": 9636,
      " की": 9637,
      " Shrestha,": 9638,
      " कर्णाली": 9639,
      " सभ": 9640,
      " hon": 9641,
      "going": 9642,
      "सू": 9643,
      " weak": 9644,
      " युद्ध": 9645,
      " said,\"": 9646,
      " बन्ने": 9647,
      " मार्फत": 9648,
      " आँखा": 9649,
      " मोटर": 9650,
      " भन्नुभयो": 9651,
      " भनेका": 9652,
      "epar": 9653,
      " earthqu": 9654,
      " Due": 9655,
      "ini": 9656,
      " hit": 9657,
      " २९": 9658,
      " रिपोर्ट": 9659,
      " शुल्क": 9660,
      " साता": 9661,
      " ढि": 9662,
      " गौतम": 9663,
      " लकडाउन": 9664,
      "बाहेक": 9665,
      "usband": 9666,
      " गल": 9667,
      " \"\n": 9668,
      " त्यस्तो": 9669,
      "कुल": 9670,
      "िकल": 9671,
      " blood": 9672,
      " कवि": 9673,
      " संस्कृति": 9674,
      "let": 9675,
      " कसैले": 9676,
      " Rast": 9677,
      " Up": 9678,
      "ban": 9679,
      " ago,": 9680,
      "ays": 9681,
      " fight": 9682,
      "लिएको": 9683,
      "att": 9684,
      " प्राविधिक": 9685,
      "ल्याण्ड": 9686,
      " कलाकार": 9687,
      " पारि": 9688,
      " प्रतिस्पर्धा": 9689,
      " २००": 9690,
      "fort": 9691,
      " Kamal": 9692,
      " सरकारलाई": 9693,
      " Kathmandu,": 9694,
      " लाग्छ": 9695,
      "ountain": 9696,
      " points": 9697,
      " फेला": 9698,
      " बलियो": 9699,
      " streng": 9700,
      " Gautam": 9701,
      " उपभो": 9702,
      "सिल": 9703,
      " medic": 9704,
      " day,": 9705,
      " बिना": 9706,
      " India,": 9707,
      " हुनुपर्ने": 9708,
      " गुणस्त": 9709,
      " कस्तो": 9710,
      "imum": 9711,
      "े।\n": 9712,
      " foc": 9713,
      "book": 9714,
      "दल": 9715,
      " cour": 9716,
      "नेटमा": 9717,
      " विधि": 9718,
      " world.\n": 9719,
      "ats": 9720,
      "मात्र": 9721,
      "pact": 9722,
      " जम्मा": 9723,
      "ically": 9724,
      " means": 9725,
      " काँग": 9726,
      " daily": 9727,
      " loss": 9728,
      "गुन": 9729,
      " black": 9730,
      "one.\n": 9731,
      " brother": 9732,
      " State": 9733,
      " नौ": 9734,
      " companies": 9735,
      " राहत": 9736,
      "gar": 9737,
      " स्थायी": 9738,
      " फुटबल": 9739,
      " aut": 9740,
      "stitu": 9741,
      " जोडि": 9742,
      " flood": 9743,
      " नपा": 9744,
      "न्त्रिक": 9745,
      " उनीहरुले": 9746,
      " त्यसलाई": 9747,
      " accused": 9748,
      "age,": 9749,
      " पाउ": 9750,
      " युरो": 9751,
      " अवधिमा": 9752,
      " flight": 9753,
      "तै": 9754,
      " शिक्षक": 9755,
      "सोज": 9756,
      " districts": 9757,
      " joint": 9758,
      " बुद्ध": 9759,
      " गुना": 9760,
      " prosper": 9761,
      " मिनेट": 9762,
      " dream": 9763,
      " God": 9764,
      " parent": 9765,
      "bar": 9766,
      " Bhandari": 9767,
      " कालो": 9768,
      " योगदान": 9769,
      " लाभ": 9770,
      " Ju": 9771,
      "hay": 9772,
      "hod": 9773,
      " alloc": 9774,
      " Two": 9775,
      " Col": 9776,
      " कर्जा": 9777,
      "्वी": 9778,
      " Be": 9779,
      "work": 9780,
      " Aust": 9781,
      " fifty": 9782,
      " अवसरमा": 9783,
      " urged": 9784,
      "istan": 9785,
      " Social": 9786,
      " often": 9787,
      " आवा": 9788,
      " पठा": 9789,
      " phot": 9790,
      " चरणमा": 9791,
      " सञ्चालनमा": 9792,
      " wick": 9793,
      " ट्या": 9794,
      "ारम्भ": 9795,
      " Don": 9796,
      " कहाँ": 9797,
      " विद्युत्": 9798,
      " वार्ष": 9799,
      " कमजोर": 9800,
      " हुन्छन्": 9801,
      " सामु": 9802,
      " किनभने": 9803,
      " Army": 9804,
      " क्षेत्रका": 9805,
      " प्रतियोगि": 9806,
      "ण्डकी": 9807,
      " बीमा": 9808,
      " साँझ": 9809,
      " मन्त्रिपरि": 9810,
      "लीमा": 9811,
      "estic": 9812,
      "प्रिय": 9813,
      " veget": 9814,
      " भक्त": 9815,
      "fer": 9816,
      " Loc": 9817,
      " मं": 9818,
      " Med": 9819,
      " officer": 9820,
      "ran": 9821,
      " These": 9822,
      " सपना": 9823,
      "uj": 9824,
      " छोरी": 9825,
      "ger": 9826,
      " tourn": 9827,
      "रीय": 9828,
      " (N": 9829,
      " पुरानो": 9830,
      " Officer": 9831,
      " tournament": 9832,
      " raised": 9833,
      " tourist": 9834,
      "ron": 9835,
      " countri": 9836,
      " online": 9837,
      " spent": 9838,
      "gest": 9839,
      " More": 9840,
      " miss": 9841,
      " festival": 9842,
      " काँग्रेस": 9843,
      " हुनुहुन्छ": 9844,
      "हित्य": 9845,
      " ल्याएको": 9846,
      " collect": 9847,
      " environment": 9848,
      "नेपाल": 9849,
      " introdu": 9850,
      "duc": 9851,
      "kash": 9852,
      " हेर्न": 9853,
      " mean": 9854,
      "omen": 9855,
      " नाका": 9856,
      " convent": 9857,
      " infrastructure": 9858,
      " hard": 9859,
      " department": 9860,
      " राखेको": 9861,
      " conducted": 9862,
      " Communist": 9863,
      " वैशाख": 9864,
      " ब्": 9865,
      " husband": 9866,
      " मोबाइ": 9867,
      " tru": 9868,
      " physical": 9869,
      "न्छु": 9870,
      " Rai": 9871,
      " highest": 9872,
      " income": 9873,
      " संसद्": 9874,
      " Euro": 9875,
      " समितिका": 9876,
      "एफ": 9877,
      "oj": 9878,
      " वार्ता": 9879,
      " separ": 9880,
      " लगाउने": 9881,
      " व्यक्तिगत": 9882,
      " sn": 9883,
      " पदार्थ": 9884,
      " vice": 9885,
      " देशका": 9886,
      " चयन": 9887,
      " यद्यपि": 9888,
      " मौसम": 9889,
      " drug": 9890,
      " created": 9891,
      " बोला": 9892,
      "लाका": 9893,
      " Pat": 9894,
      " पुर्‍या": 9895,
      "ल्यै": 9896,
      "ercial": 9897,
      " साह": 9898,
      " address": 9899,
      " मान्य": 9900,
      " फोन": 9901,
      "कोट": 9902,
      "aug": 9903,
      " operation": 9904,
      "orrow": 9905,
      " buy": 9906,
      "े,": 9907,
      "aring": 9908,
      "तह": 9909,
      " युव": 9910,
      "कर": 9911,
      " Karnali": 9912,
      " भारतमा": 9913,
      "किङ": 9914,
      " भन्छन्,": 9915,
      " never": 9916,
      "ances": 9917,
      "डर": 9918,
      " शुभ": 9919,
      " बढ्दै": 9920,
      " standard": 9921,
      " record": 9922,
      " कारणले": 9923,
      " नम": 9924,
      "ada": 9925,
      " बताउँदै": 9926,
      " culture": 9927,
      "ance,": 9928,
      " sl": 9929,
      " आशा": 9930,
      " भौतिक": 9931,
      " विकेट": 9932,
      " चुनौती": 9933,
      " poor": 9934,
      "म्परा": 9935,
      " Since": 9936,
      " डाक्टर": 9937,
      " अंग": 9938,
      " विज्ञप्": 9939,
      "जको": 9940,
      " corrup": 9941,
      "चारिक": 9942,
      " Mod": 9943,
      " pap": 9944,
      "क्य": 9945,
      " तपाईंलाई": 9946,
      " certain": 9947,
      "CC": 9948,
      " खण्ड": 9949,
      "तीय": 9950,
      "ृत्ति": 9951,
      " club": 9952,
      "arai": 9953,
      "न्थ्यो": 9954,
      " सिफारिस": 9955,
      " City": 9956,
      "airs": 9957,
      "पुरमा": 9958,
      " प्रतिवेदन": 9959,
      "mon": 9960,
      "risis": 9961,
      "ममा": 9962,
      " मद्द": 9963,
      " Why": 9964,
      " सुना": 9965,
      " ३५": 9966,
      " पारित": 9967,
      "ins": 9968,
      " vehicles": 9969,
      "ativ": 9970,
      " मैदान": 9971,
      "rs": 9972,
      " असोज": 9973,
      " क्वार": 9974,
      " सञ्चार": 9975,
      " looking": 9976,
      "रान": 9977,
      " reven": 9978,
      " खड्का": 9979,
      "ilk": 9980,
      " सजा": 9981,
      " trying": 9982,
      " धु": 9983,
      "over": 9984,
      "ia.\n": 9985,
      "्नु": 9986,
      " खबर": 9987,
      " मापदण्ड": 9988,
      " country,": 9989,
      " आयोजित": 9990,
      " democra": 9991,
      " entire": 9992,
      " enc": 9993,
      "ेदार": 9994,
      "rial": 9995,
      " चित्र": 9996,
      "hap": 9997,
      "oura": 9998,
      " sever": 9999,
      "तीमा": 10000,
      "िनी": 10001,
      " राजधानी": 10002,
      " claimed": 10003,
      " rupees.\n": 10004,
      " चिकित्सक": 10005,
      " caused": 10006,
      " needs": 10007,
      "सिर": 10008,
      "head": 10009,
      "तान्त्रिक": 10010,
      " पाकिस्ता": 10011,
      " नियन्त्रणमा": 10012,
      " Japan": 10013,
      " गलत": 10014,
      "arding": 10015,
      " भूमि": 10016,
      " सल्लाह": 10017,
      " mess": 10018,
      "oving": 10019,
      " motor": 10020,
      " cabinet": 10021,
      " Del": 10022,
      "awal": 10023,
      " ev": 10024,
      " मध": 10025,
      " थपि": 10026,
      "नेछ": 10027,
      " पार्टीका": 10028,
      " प्रतियोगिता": 10029,
      " संसदीय": 10030,
      " line": 10031,
      " dead": 10032,
      " अर्का": 10033,
      "शुल्क": 10034,
      " quarant": 10035,
      "धुनिक": 10036,
      " बताएको": 10037,
      " मन्त्रालयका": 10038,
      " that,": 10039,
      "त्कार": 10040,
      " ऐन": 10041,
      " board": 10042,
      " providing": 10043,
      "bs": 10044,
      " camp": 10045,
      " Khat": 10046,
      "uled": 10047,
      " government's": 10048,
      " impact": 10049,
      " football": 10050,
      " कोही": 10051,
      "तक": 10052,
      " आर": 10053,
      " legal": 10054,
      "हरा": 10055,
      " एउटै": 10056,
      "arned": 10057,
      " pand": 10058,
      " hours": 10059,
      " Ro": 10060,
      " परम्परा": 10061,
      " सजिलो": 10062,
      " times": 10063,
      " धारणा": 10064,
      " players": 10065,
      " विश्वक": 10066,
      "\"\"": 10067,
      " 13": 10068,
      " sess": 10069,
      " गर्ने,": 10070,
      "एल": 10071,
      " En": 10072,
      " stopped": 10073,
      " Aff": 10074,
      " तिमी": 10075,
      " सकारात्मक": 10076,
      " महत्त्वपूर्ण": 10077,
      " भै": 10078,
      " नर": 10079,
      "estern": 10080,
      " भे": 10081,
      " पाण्ड": 10082,
      " force": 10083,
      " Janak": 10084,
      " Mor": 10085,
      " विज्ञान": 10086,
      " मज": 10087,
      "कुर": 10088,
      " उपयुक्त": 10089,
      " तर्फबाट": 10090,
      " sched": 10091,
      " छोड": 10092,
      "ification": 10093,
      " दिनुभयो": 10094,
      " सञ्जाल": 10095,
      " सामान": 10096,
      " Budd": 10097,
      " टोलीले": 10098,
      "िएका": 10099,
      " फ्रा": 10100,
      "तिकै": 10101,
      " training": 10102,
      " dou": 10103,
      " request": 10104,
      " section": 10105,
      "्यो।\n": 10106,
      " several": 10107,
      " investigation": 10108,
      " जसमा": 10109,
      " साना": 10110,
      " Congres": 10111,
      " States": 10112,
      " प्ले": 10113,
      " Krishna": 10114,
      " सम्पत्ति": 10115,
      " him.\n": 10116,
      "chary": 10117,
      "यल": 10118,
      "ai,": 10119,
      " बल": 10120,
      " it's": 10121,
      " Of": 10122,
      "तालाई": 10123,
      " constru": 10124,
      " patients": 10125,
      "ेदेखि": 10126,
      " साहित्य": 10127,
      " create": 10128,
      " aim": 10129,
      " Serv": 10130,
      " Chandra": 10131,
      "pur,": 10132,
      " net": 10133,
      "साधारण": 10134,
      " applic": 10135,
      "]\n": 10136,
      " पुरस्कार": 10137,
      "ned": 10138,
      " From": 10139,
      " i": 10140,
      " गर्नुहोस्।\n": 10141,
      "ामुख": 10142,
      "ग्रा": 10143,
      " travel": 10144,
      " फेस": 10145,
      " क्रिया": 10146,
      "निर्माण": 10147,
      " अघिल्लो": 10148,
      "मिटर": 10149,
      " जापान": 10150,
      " mobile": 10151,
      "rip": 10152,
      " effort": 10153,
      " डलर": 10154,
      " experience": 10155,
      " उपस्थिति": 10156,
      "oll": 10157,
      " बेच": 10158,
      " अर्थतन्त्र": 10159,
      "तया": 10160,
      "of": 10161,
      "कन": 10162,
      " forced": 10163,
      " born": 10164,
      " सकिन्छ।\n": 10165,
      "भग": 10166,
      "क्षम": 10167,
      " मेड": 10168,
      " दाय": 10169,
      "पश्चिम": 10170,
      "ला,": 10171,
      " cir": 10172,
      " सिद्धा": 10173,
      " decreas": 10174,
      " हुन्छ,": 10175,
      "टनगर": 10176,
      " तिनीहरूले": 10177,
      "at,": 10178,
      " Ran": 10179,
      "eal": 10180,
      " \"N": 10181,
      "ope": 10182,
      " Mus": 10183,
      " demanded": 10184,
      " २०६": 10185,
      "aya": 10186,
      " रण": 10187,
      "ण्डा": 10188,
      " Many": 10189,
      " नप": 10190,
      " vehicle": 10191,
      " runs": 10192,
      " छाड": 10193,
      "atis": 10194,
      " सम्बन्धमा": 10195,
      "the": 10196,
      " ir": 10197,
      "कुद": 10198,
      " resour": 10199,
      " लगाउन": 10200,
      " Shiv": 10201,
      "rong": 10202,
      " सम्बन्धी": 10203,
      " जिल्लाको": 10204,
      "लीको": 10205,
      " गएका": 10206,
      "वैधानिक": 10207,
      " ल्याउने": 10208,
      " earli": 10209,
      " occur": 10210,
      "लाल": 10211,
      " continue": 10212,
      " आयात": 10213,
      " मिटर": 10214,
      "वधान": 10215,
      " Next": 10216,
      " Chitwan": 10217,
      "pect": 10218,
      " 18": 10219,
      " स्या": 10220,
      " early": 10221,
      " आम्": 10222,
      "सीको": 10223,
      "gu": 10224,
      "एक": 10225,
      " महानगरपालिका": 10226,
      " ball": 10227,
      " पर्याप्त": 10228,
      "aching": 10229,
      " उपभोक्ता": 10230,
      " jo": 10231,
      " पुष्": 10232,
      "icro": 10233,
      "रुप": 10234,
      "ट्टै": 10235,
      "हाम": 10236,
      " Austral": 10237,
      "।\"\n": 10238,
      " हुनुपर्छ": 10239,
      " दुर्घटना": 10240,
      " अध्या": 10241,
      " relationship": 10242,
      "स्टर": 10243,
      " becoming": 10244,
      " नसक्ने": 10245,
      "ुक": 10246,
      " trade": 10247,
      "साब": 10248,
      "ika": 10249,
      "igation": 10250,
      " स्थित": 10251,
      " launched": 10252,
      " गुनासो": 10253,
      " thought": 10254,
      "cl": 10255,
      " pandemic": 10256,
      " चर्चा": 10257,
      "व्र": 10258,
      " अपे": 10259,
      " प्रत्यक्ष": 10260,
      " संगीत": 10261,
      " houses": 10262,
      "UML": 10263,
      " एयर": 10264,
      "खो": 10265,
      " फल": 10266,
      " expert": 10267,
      " people's": 10268,
      " Speaker": 10269,
      "वाई": 10270,
      " programs": 10271,
      " patient": 10272,
      " दबा": 10273,
      " लड": 10274,
      "नाई": 10275,
      " Central": 10276,
      " तेल": 10277,
      " मिडिया": 10278,
      " खेलकुद": 10279,
      " युनि": 10280,
      " खास": 10281,
      " sum": 10282,
      " चन्द्र": 10283,
      " scheduled": 10284,
      " civil": 10285,
      " ज्ञान": 10286,
      " marri": 10287,
      " त्यसमा": 10288,
      " विधेयक": 10289,
      " norm": 10290,
      " Trump": 10291,
      " above": 10292,
      "पे": 10293,
      " बढाउन": 10294,
      "-2": 10295,
      " ट्रम्प": 10296,
      " cast": 10297,
      "ी,": 10298,
      "साथ": 10299,
      "-up": 10300,
      " Earlier,": 10301,
      " गर्नुभयो": 10302,
      "sw": 10303,
      "धव": 10304,
      " वाणिज्य": 10305,
      " Also": 10306,
      " capac": 10307,
      "घाटन": 10308,
      "ित्त": 10309,
      "iful": 10310,
      " निर्वाचित": 10311,
      " block": 10312,
      " Kathmandu.\n": 10313,
      " अभिने": 10314,
      " मिति": 10315,
      " themsel": 10316,
      " game": 10317,
      "ारु": 10318,
      " तत्कालीन": 10319,
      " Bhattarai": 10320,
      "फिक": 10321,
      " Sa": 10322,
      "andaki": 10323,
      " प्रतिक्रिया": 10324,
      " Tour": 10325,
      " Pal": 10326,
      " वर्त": 10327,
      " kil": 10328,
      " amend": 10329,
      " पाउन": 10330,
      " पुर्या": 10331,
      " clim": 10332,
      " पहिरो": 10333,
      " ground": 10334,
      " Educ": 10335,
      " opened": 10336,
      " concerned": 10337,
      " महसु": 10338,
      " Bhar": 10339,
      "ilitary": 10340,
      " खोज्": 10341,
      "क्षेप": 10342,
      " बह": 10343,
      " citizen": 10344,
      " preparing": 10345,
      " occasion": 10346,
      " Club": 10347,
      " ess": 10348,
      " किसिम": 10349,
      " Lalit": 10350,
      "uit": 10351,
      " Push": 10352,
      " dri": 10353,
      " Then": 10354,
      " administration": 10355,
      " स्थापित": 10356,
      " खोजी": 10357,
      " playing": 10358,
      "ensus": 10359,
      "ester": 10360,
      " गर्नुभएको": 10361,
      " |": 10362,
      " सबैलाई": 10363,
      " profit": 10364,
      " 'W": 10365,
      " install": 10366,
      " Division": 10367,
      " ढा": 10368,
      "्दा": 10369,
      " park": 10370,
      " प्रदेशमा": 10371,
      "क्रो": 10372,
      "lobal": 10373,
      " आए": 10374,
      "जिम": 10375,
      " method": 10376,
      " आवेद": 10377,
      "udha": 10378,
      "नेर": 10379,
      " न्यून": 10380,
      " 12": 10381,
      "ियर": 10382,
      "ry,": 10383,
      " repe": 10384,
      " अनुदान": 10385,
      " party.\n": 10386,
      " pict": 10387,
      " region": 10388,
      " दिँदै": 10389,
      "टु": 10390,
      " बढि": 10391,
      " विभा": 10392,
      " बनाउँ": 10393,
      " आयोगले": 10394,
      " कहि": 10395,
      "atar": 10396,
      " orig": 10397,
      " तरकारी": 10398,
      " गर्नका": 10399,
      " शरीर": 10400,
      " manag": 10401,
      " shop": 10402,
      " भने।\n": 10403,
      " सहकार्य": 10404,
      " award": 10405,
      "irt": 10406,
      " mentioned": 10407,
      " established": 10408,
      "टव": 10409,
      " बन्": 10410,
      " मिनेटमा": 10411,
      " outside": 10412,
      "itation": 10413,
      " ३१": 10414,
[...]
